{
  "version": "1.0",
  "truncation": null,
  "padding": null,
  "added_tokens": [
    {
      "id": 0,
      "content": "<|endoftext|>",
      "single_word": false,
      "lstrip": false,
      "rstrip": false,
      "normalized": false,
      "special": true
    }
  ],
  "normalizer": null,
  "pre_tokenizer": {
    "type": "Sequence",
    "pretokenizers": [
      {
        "type": "Whitespace"
      },
      {
        "type": "Split",
        "pattern": {
          "String": "'(?=[a-zA-Z])|(?<=[a-zA-Z])'(?![a-zA-Z])|[.,!?;:\\\"''—(){}\\-]|[\\[\\]]"
        },
        "behavior": "Isolated",
        "invert": false
      }
    ]
  },
  "post_processor": null,
  "decoder": null,
  "model": {
    "type": "BPE",
    "dropout": null,
    "unk_token": "<|unk|>",
    "continuing_subword_prefix": null,
    "end_of_word_suffix": null,
    "fuse_unk": false,
    "byte_fallback": false,
    "ignore_merges": false,
    "vocab": {
      "<|endoftext|>": 0,
      "!": 1,
      "\"": 2,
      "#": 3,
      "%": 4,
      "&": 5,
      "'": 6,
      "(": 7,
      ")": 8,
      "+": 9,
      ",": 10,
      "-": 11,
      ".": 12,
      "/": 13,
      "0": 14,
      "1": 15,
      "2": 16,
      "3": 17,
      "4": 18,
      "5": 19,
      "6": 20,
      "7": 21,
      "8": 22,
      "9": 23,
      ":": 24,
      ";": 25,
      "<": 26,
      "=": 27,
      ">": 28,
      "?": 29,
      "@": 30,
      "A": 31,
      "B": 32,
      "C": 33,
      "D": 34,
      "E": 35,
      "F": 36,
      "G": 37,
      "H": 38,
      "I": 39,
      "J": 40,
      "K": 41,
      "L": 42,
      "M": 43,
      "N": 44,
      "O": 45,
      "P": 46,
      "R": 47,
      "S": 48,
      "T": 49,
      "U": 50,
      "V": 51,
      "W": 52,
      "X": 53,
      "Y": 54,
      "Z": 55,
      "[": 56,
      "\\": 57,
      "]": 58,
      "_": 59,
      "a": 60,
      "b": 61,
      "c": 62,
      "d": 63,
      "e": 64,
      "f": 65,
      "g": 66,
      "h": 67,
      "i": 68,
      "j": 69,
      "k": 70,
      "l": 71,
      "m": 72,
      "n": 73,
      "o": 74,
      "p": 75,
      "q": 76,
      "r": 77,
      "s": 78,
      "t": 79,
      "u": 80,
      "v": 81,
      "w": 82,
      "x": 83,
      "y": 84,
      "z": 85,
      "{": 86,
      "|": 87,
      "}": 88,
      "·": 89,
      "’": 90,
      "…": 91,
      "🇸": 92,
      "🇺": 93,
      "=\"": 94,
      "19": 95,
      "-.": 96,
      "qu": 97,
      "ot": 98,
      "quot": 99,
      "te": 100,
      "197": 101,
      "><": 102,
      "00": 103,
      "la": 104,
      "in": 105,
      "at": 106,
      "en": 107,
      "13": 108,
      "le": 109,
      "or": 110,
      "ss": 111,
      "12": 112,
      "cla": 113,
      "class": 114,
      "er": 115,
      "\"><": 116,
      "ra": 117,
      "on": 118,
      "14": 119,
      "id": 120,
      "10": 121,
      "ar": 122,
      "iv": 123,
      "xt": 124,
      "15": 125,
      "re": 126,
      "43": 127,
      "16": 128,
      "pat": 129,
      "path": 130,
      "17": 131,
      "text": 132,
      "an": 133,
      "ll": 134,
      "18": 135,
      "99": 136,
      "div": 137,
      "ro": 138,
      "28": 139,
      "</": 140,
      "ht": 141,
      "25": 142,
      "se": 143,
      "sp": 144,
      "75": 145,
      "20": 146,
      ";:": 147,
      "ww": 148,
      "24": 149,
      "23": 150,
      "26": 151,
      "gra": 152,
      "136": 153,
      "gray": 154,
      "11": 155,
      "fi": 156,
      "sv": 157,
      "svg": 158,
      ",&": 159,
      "46": 160,
      "cu": 161,
      "lin": 162,
      "ie": 163,
      "08": 164,
      "39": 165,
      "lex": 166,
      "flex": 167,
      "22": 168,
      "fill": 169,
      "67": 170,
      "193": 171,
      "06": 172,
      "45": 173,
      "></": 174,
      "196": 175,
      "\"></": 176,
      "mr": 177,
      "ite": 178,
      "33": 179,
      "tp": 180,
      "al": 181,
      "ns": 182,
      "http": 183,
      "95": 184,
      "ml": 185,
      "ol": 186,
      "span": 187,
      "et": 188,
      "ter": 189,
      "//": 190,
      "://": 191,
      "em": 192,
      "ent": 193,
      "ty": 194,
      ";:&": 195,
      "21": 196,
      "29": 197,
      "35": 198,
      "der": 199,
      "\">": 200,
      "76": 201,
      "ru": 202,
      "04": 203,
      ";,&": 204,
      "1em": 205,
      "li": 206,
      "27": 207,
      "65": 208,
      "ver": 209,
      "ata": 210,
      "link": 211,
      "07": 212,
      "rou": 213,
      "05": 214,
      "34": 215,
      "38": 216,
      "org": 217,
      "Mid": 218,
      "w3": 219,
      "xml": 220,
      "ark": 221,
      "www": 222,
      "xmlns": 223,
      "37": 224,
      "48": 225,
      "98": 226,
      "cen": 227,
      "dark": 228,
      "he": 229,
      "over": 230,
      "ies": 231,
      "55": 232,
      "cur": 233,
      "data": 234,
      "ig": 235,
      "32": 236,
      "xlink": 237,
      "center": 238,
      "de": 239,
      "ories": 240,
      "olor": 241,
      "Color": 242,
      "ac": 243,
      "hover": 244,
      "im": 245,
      "ms": 246,
      "rent": 247,
      "ts": 248,
      "ut": 249,
      "items": 250,
      "current": 251,
      "currentColor": 252,
      "49": 253,
      "86": 254,
      "31": 255,
      "th": 256,
      "000": 257,
      "idd": 258,
      "09": 259,
      "hidd": 260,
      "hidden": 261,
      "64": 262,
      "97": 263,
      "md": 264,
      "me": 265,
      "5a": 266,
      "bor": 267,
      "fal": 268,
      "mb": 269,
      "ref": 270,
      "ight": 271,
      "border": 272,
      "false": 273,
      "44": 274,
      "68": 275,
      "ct": 276,
      "St": 277,
      "ab": 278,
      "el": 279,
      "ing": 280,
      "lo": 281,
      "ati": 282,
      "02": 283,
      "36": 284,
      "iny": 285,
      "Tiny": 286,
      "dd": 287,
      "fo": 288,
      "tru": 289,
      "Stories": 290,
      "TinyStories": 291,
      "47": 292,
      "href": 293,
      "iew": 294,
      "datase": 295,
      "tra": 296,
      "77": 297,
      "ser": 298,
      "400": 299,
      "94": 300,
      "ad": 301,
      "ag": 302,
      "m0": 303,
      "view": 304,
      "wid": 305,
      "=\"/": 306,
      "cus": 307,
      "line": 308,
      "width": 309,
      "66": 310,
      "grou": 311,
      "ow": 312,
      "focus": 313,
      "group": 314,
      "58": 315,
      "78": 316,
      "a1": 317,
      "ia": 318,
      "ron": 319,
      "height": 320,
      "img": 321,
      "true": 322,
      "87": 323,
      "sm": 324,
      "192": 325,
      "82": 326,
      "but": 327,
      "ton": 328,
      "datasets": 329,
      "2000": 330,
      "53": 331,
      "Bo": 332,
      "dan": 333,
      "it": 334,
      "ma": 335,
      "pe": 336,
      "ri": 337,
      "ve": 338,
      "aria": 339,
      "viewBo": 340,
      "button": 341,
      "viewBox": 342,
      "30": 343,
      "ate": 344,
      "ect": 345,
      "op": 346,
      "pre": 347,
      "enel": 348,
      "role": 349,
      "ronenel": 350,
      "roneneldan": 351,
      "4a": 352,
      "con": 353,
      "is": 354,
      "{&": 355,
      "83": 356,
      "Asp": 357,
      "Rati": 358,
      "YMid": 359,
      "ev": 360,
      "sc": 361,
      "xMid": 362,
      "435a": 363,
      "meet": 364,
      "able": 365,
      "serve": 366,
      "ectRati": 367,
      "preserve": 368,
      "AspectRati": 369,
      "xMidYMid": 370,
      "preserveAspectRati": 371,
      "preserveAspectRatio": 372,
      "56": 373,
      "69": 374,
      "79": 375,
      "pt": 376,
      "st": 377,
      "focusable": 378,
      "88": 379,
      "ZM": 380,
      "co": 381,
      "ity": 382,
      "odd": 383,
      "1999": 384,
      "enodd": 385,
      "rule": 386,
      "evenodd": 387,
      "03": 388,
      "type": 389,
      "42": 390,
      "57": 391,
      "93": 392,
      "a2": 393,
      "non": 394,
      "wh": 395,
      "ace": 396,
      "scri": 397,
      "none": 398,
      "01": 399,
      "2h": 400,
      "nde": 401,
      "px": 402,
      "tag": 403,
      "rounde": 404,
      "white": 405,
      "script": 406,
      "rounded": 407,
      "039": 408,
      "74": 409,
      "85": 410,
      "bg": 411,
      "un": 412,
      "500": 413,
      "63": 414,
      "lg": 415,
      "71": 416,
      "89": 417,
      "92": 418,
      "ck": 419,
      "rap": 420,
      "acity": 421,
      "opacity": 422,
      "54": 423,
      "ten": 424,
      "ive": 425,
      "434a": 426,
      "conten": 427,
      "100": 428,
      "62": 429,
      "ap": 430,
      "bra": 431,
      "c0": 432,
      "ion": 433,
      "na": 434,
      "ry": 435,
      "to": 436,
      "tive": 437,
      "main": 438,
      "2V": 439,
      "41": 440,
      ";}": 441,
      "C8": 442,
      "Zm": 443,
      "as": 444,
      "pro": 445,
      "197v": 446,
      "3a": 447,
      "52": 448,
      "600": 449,
      "72": 450,
      "dow": 451,
      "gg": 452,
      "ull": 453,
      "=\"#": 454,
      "lative": 455,
      "relative": 456,
      "https": 457,
      "libra": 458,
      "trans": 459,
      "/>": 460,
      "3C": 461,
      "300": 462,
      "7C": 463,
      "for": 464,
      "full": 465,
      "library": 466,
      "1a": 467,
      "375": 468,
      "73": 469,
      "91": 470,
      "ce": 471,
      "cate": 472,
      "ib": 473,
      "txt": 474,
      "wrap": 475,
      "132": 476,
      "derline": 477,
      "train": 478,
      "underline": 479,
      "form": 480,
      "59": 481,
      "700": 482,
      "C5": 483,
      "TE": 484,
      "Zm0": 485,
      "cli": 486,
      "py": 487,
      "ugg": 488,
      "zm0": 489,
      "196v": 490,
      "clip": 491,
      "ugging": 492,
      "\":": 493,
      "40": 494,
      "C14": 495,
      "FF": 496,
      "blo": 497,
      "fon": 498,
      "po": 499,
      "sh": 500,
      "sty": 501,
      "lab": 502,
      "arg": 503,
      "load": 504,
      "style": 505,
      "\",": 506,
      "6C": 507,
      "914": 508,
      "C16": 509,
      "C20": 510,
      "\\/": 511,
      "bla": 512,
      "lead": 513,
      "284": 514,
      "max": 515,
      "name": 516,
      "prop": 517,
      "label": 518,
      "leading": 519,
      "2H": 520,
      "800": 521,
      "C1": 522,
      "V6": 523,
      "a5": 524,
      "face": 525,
      "mo": 526,
      "v4": 527,
      "inline": 528,
      "125": 529,
      ";:[": 530,
      "eta": 531,
      "00039": 532,
      "age": 533,
      "ask": 534,
      "uggingface": 535,
      "2a": 536,
      "343": 537,
      "625": 538,
      "608": 539,
      "8a": 540,
      "C6": 541,
      "C18": 542,
      "V4": 543,
      "aut": 544,
      "ed": 545,
      "gu": 546,
      "huggingface": 547,
      "meta": 548,
      "targ": 549,
      "us": 550,
      "xl": 551,
      "ze": 552,
      "zm": 553,
      "006": 554,
      "1046": 555,
      "99H": 556,
      ";:{&": 557,
      "4504": 558,
      "31h": 559,
      "ation": 560,
      "6615": 561,
      "com": 562,
      "\":\"": 563,
      "block": 564,
      "font": 565,
      "target": 566,
      ",{&": 567,
      "114": 568,
      "424": 569,
      "667": 570,
      "96": 571,
      "C7": 572,
      "_cate": 573,
      "ch": 574,
      "gories": 575,
      "ls": 576,
      "nload": 577,
      "=\"\"": 578,
      "003": 579,
      "space": 580,
      "236": 581,
      "136v": 582,
      "674": 583,
      "193h": 584,
      "193v": 585,
      "65039": 586,
      "itle": 587,
      "content": 588,
      "contents": 589,
      "download": 590,
      "\",\"": 591,
      "_categories": 592,
      ");": 593,
      "224": 594,
      "3A": 595,
      "3c": 596,
      "414": 597,
      "723": 598,
      "786": 599,
      "80": 600,
      "84": 601,
      "875": 602,
      "917": 603,
      "cd": 604,
      "ell": 605,
      "ize": 606,
      "oc": 607,
      "og": 608,
      "pla": 609,
      "tight": 610,
      "title": 611,
      "ub": 612,
      "=\".": 613,
      "196h": 614,
      "35786": 615,
      "6421": 616,
      ";},{&": 617,
      "transform": 618,
      "6081": 619,
      "075": 620,
      "095": 621,
      "1a1": 622,
      "2v": 623,
      "200": 624,
      "275": 625,
      "506": 626,
      "548": 627,
      "61": 628,
      "718": 629,
      "775": 630,
      "81": 631,
      "807": 632,
      "908": 633,
      "C2": 634,
      "C3": 635,
      "C29": 636,
      "Data": 637,
      "ader": 638,
      "di": 639,
      "ment": 640,
      "par": 641,
      "late": 642,
      "129": 643,
      "ary": 644,
      "red": 645,
      "and": 646,
      "468": 647,
      "3374": 648,
      "old": 649,
      "35039": 650,
      "55129": 651,
      "0945": 652,
      "translate": 653,
      "ible": 654,
      "black": 655,
      "auto": 656,
      "42446": 657,
      "0v": 658,
      "225": 659,
      "302": 660,
      "417": 661,
      "51": 662,
      "567": 663,
      "827": 664,
      "8a1": 665,
      "9a": 666,
      "ATE": 667,
      "DR": 668,
      "EL": 669,
      "H4": 670,
      "HY": 671,
      "M4": 672,
      "M12": 673,
      "M20": 674,
      "SV": 675,
      "],&": 676,
      "_HY": 677,
      "dt": 678,
      "gap": 679,
      "if": 680,
      "js": 681,
      "my": 682,
      "min": 683,
      "mib": 684,
      "size": 685,
      "ur": 686,
      "uim": 687,
      "win": 688,
      "quet": 689,
      "197h": 690,
      "155": 691,
      "rel": 692,
      "9999": 693,
      "semib": 694,
      "221": 695,
      "066": 696,
      "95917": 697,
      "5a2": 698,
      "473": 699,
      "9402": 700,
      "9403": 701,
      "TE_HY": 702,
      "props": 703,
      "guage": 704,
      "usible": 705,
      "plausible": 706,
      "718a": 707,
      "parquet": 708,
      "ATER": 709,
      "DRATER": 710,
      "ELTE_HY": 711,
      "SVELTE_HY": 712,
      "window": 713,
      "semibold": 714,
      "SVELTE_HYDRATER": 715,
      "-[": 716,
      "0a": 717,
      "043": 718,
      "016": 719,
      "037": 720,
      "1M": 721,
      "117": 722,
      "428": 723,
      "623": 724,
      "825": 725,
      "839": 726,
      "855": 727,
      "936": 728,
      "C9": 729,
      "Co": 730,
      "C17": 731,
      "C28": 732,
      "Fi": 733,
      "L12": 734,
      "Th": 735,
      "V7": 736,
      "av": 737,
      "ain": 738,
      "br": 739,
      "col": 740,
      "dal": 741,
      "fa": 742,
      "ju": 743,
      "mx": 744,
      "pr": 745,
      "sol": 746,
      "ue": 747,
      "},&": 748,
      "lar": 749,
      "inter": 750,
      "ener": 751,
      "139": 752,
      "438": 753,
      "43a": 754,
      "431a": 755,
      "759": 756,
      "136h": 757,
      "6711": 758,
      "1932": 759,
      "956": 760,
      "tern": 761,
      "eme": 762,
      "355": 763,
      "658": 764,
      "6499": 765,
      "dataset": 766,
      "stif": 767,
      ";:[&": 768,
      "Datase": 769,
      "justif": 770,
      "justify": 771,
      ")\"></": 772,
      "--": 773,
      "032": 774,
      "2Z": 775,
      "2c": 776,
      "3h": 777,
      "426": 778,
      "408": 779,
      "50": 780,
      "518": 781,
      "523": 782,
      "526": 783,
      "737": 784,
      "8284": 785,
      "8066": 786,
      "9d": 787,
      "900": 788,
      ":</": 789,
      "C4": 790,
      "C11": 791,
      "C21": 792,
      "C30": 793,
      "Cop": 794,
      "H8": 795,
      "H28": 796,
      "M6": 797,
      "Ur": 798,
      "a3": 799,
      "bb": 800,
      "e8": 801,
      "ey": 802,
      "ff": 803,
      "fro": 804,
      "go": 805,
      "gener": 806,
      "ly": 807,
      "mm": 808,
      "mt": 809,
      "no": 810,
      "nsp": 811,
      "now": 812,
      "ncate": 813,
      "nguage": 814,
      "our": 815,
      "rc": 816,
      "src": 817,
      "task": 818,
      "user": 819,
      "xs": 820,
      "xiv": 821,
      "||": 822,
      "=\"-": 823,
      "=\"{&": 824,
      "language": 825,
      "atar": 826,
      "erty": 827,
      "10V": 828,
      "10a2": 829,
      "arent": 830,
      "arxiv": 831,
      "rect": 832,
      "16355": 833,
      "177": 834,
      "28a2": 835,
      "2520": 836,
      "20438": 837,
      "2312": 838,
      "2311": 839,
      "111": 840,
      "file": 841,
      "082": 842,
      "394": 843,
      "6726": 844,
      "19369": 845,
      "33114": 846,
      "33111": 847,
      "9595": 848,
      "2946": 849,
      "359": 850,
      "0522": 851,
      "0538": 852,
      "3499": 853,
      "480": 854,
      "header": 855,
      "dels": 856,
      "4933": 857,
      "97e": 858,
      "6837": 859,
      "ction": 860,
      "truncate": 861,
      "transp": 862,
      "cont": 863,
      "8345": 864,
      "56a": 865,
      "566711": 866,
      "88125": 867,
      "format": 868,
      "property": 869,
      "modal": 870,
      "31h4": 871,
      "72375": 872,
      "80709": 873,
      "93643": 874,
      "avatar": 875,
      "lars": 876,
      "5181": 877,
      "Copy": 878,
      "Url": 879,
      "from": 880,
      "nowrap": 881,
      "task_categories": 882,
      "25201": 883,
      "transparent": 884,
      "026": 885,
      "046": 886,
      "312": 887,
      "326": 888,
      "4c": 889,
      "4h": 890,
      "475": 891,
      "495": 892,
      "5V": 893,
      "533": 894,
      "535": 895,
      "576": 896,
      "534": 897,
      "6l": 898,
      "624": 899,
      "713": 900,
      "726": 901,
      "836": 902,
      "9D": 903,
      "9c": 904,
      "C0": 905,
      "C12": 906,
      "D21": 907,
      "H6": 908,
      "L3": 909,
      "L16": 910,
      "M5": 911,
      "Mo": 912,
      "M16": 913,
      "Pro": 914,
      "Te": 915,
      "V9": 916,
      "]},&": 917,
      "bl": 918,
      "cf": 919,
      "css": 920,
      "can": 921,
      "do": 922,
      "est": 923,
      "flo": 924,
      "gion": 925,
      "hf": 926,
      "ial": 927,
      "ils": 928,
      "ng": 929,
      "out": 930,
      "she": 931,
      "ti": 932,
      "the": 933,
      "tab": 934,
      "ute": 935,
      "yell": 936,
      "002": 937,
      "101": 938,
      "10M": 939,
      "1045": 940,
      "ard": 941,
      "aring": 942,
      "rem": 943,
      "176": 944,
      "283": 945,
      "204": 946,
      "2305": 947,
      "466": 948,
      "cument": 949,
      "085": 950,
      "087": 951,
      "3958": 952,
      "458": 953,
      "333": 954,
      "altern": 955,
      "35l": 956,
      "041": 957,
      "042": 958,
      "07759": 959,
      "056": 960,
      "057": 961,
      "cense": 962,
      "overflo": 963,
      "471": 964,
      "adow": 965,
      "8737": 966,
      "192h": 967,
      "192v": 968,
      "open": 969,
      "ions": 970,
      "FF9D": 971,
      "FFD21": 972,
      "pointer": 973,
      "sharing": 974,
      "shadow": 975,
      "styleshe": 976,
      ";:[{&": 977,
      "cdla": 978,
      "size_categories": 979,
      "Comm": 980,
      "Theme": 981,
      "generation": 982,
      "contain": 983,
      "modality": 984,
      "blue": 985,
      "document": 986,
      "outline": 987,
      "yellow": 988,
      "alternate": 989,
      "overflow": 990,
      "FFD21E": 991,
      "stylesheet": 992,
      "0f": 993,
      "0l": 994,
      "012": 995,
      "017": 996,
      "022": 997,
      "1h": 998,
      "2z": 999,
      "2zm0": 1000,
      "3ab": 1001,
      "443": 1002,
      "425": 1003,
      "476": 1004,
      "5e": 1005,
      "524": 1006,
      "544": 1007,
      "542": 1008,
      "6a": 1009,
      "6c": 1010,
      "610": 1011,
      "648": 1012,
      "697": 1013,
      "6046": 1014,
      "70": 1015,
      "7Z": 1016,
      "719": 1017,
      "714": 1018,
      "7082": 1019,
      "814": 1020,
      "820": 1021,
      "8193": 1022,
      "844": 1023,
      "9f": 1024,
      "925": 1025,
      "946": 1026,
      "906": 1027,
      ":\\/": 1028,
      ";],&": 1029,
      "==": 1030,
      "A2": 1031,
      "C10": 1032,
      "C26": 1033,
      "H15": 1034,
      "In": 1035,
      "Key": 1036,
      "L5": 1037,
      "L6": 1038,
      "L8": 1039,
      "Li": 1040,
      "Po": 1041,
      "Se": 1042,
      "V2": 1043,
      "V13": 1044,
      "a8": 1045,
      "all": 1046,
      "ase": 1047,
      "be": 1048,
      "base": 1049,
      "cor": 1050,
      "cro": 1051,
      "card": 1052,
      "d5": 1053,
      "dis": 1054,
      "dask": 1055,
      "doc": 1056,
      "ip": 1057,
      "iss": 1058,
      "mat": 1059,
      "sor": 1060,
      "umb": 1061,
      "val": 1062,
      "{}": 1063,
      "009": 1064,
      "init": 1065,
      "ence": 1066,
      "135": 1067,
      "137": 1068,
      "138": 1069,
      "ort": 1070,
      "ssions": 1071,
      "128": 1072,
      "12Z": 1073,
      "12h": 1074,
      "1286": 1075,
      "ono": 1076,
      "146": 1077,
      "14022": 1078,
      "109": 1079,
      "153": 1080,
      "1598": 1081,
      "15C16": 1082,
      "1597e": 1083,
      "repo": 1084,
      "region": 1085,
      "4395": 1086,
      "16032": 1087,
      "1752": 1088,
      "ant": 1089,
      "183": 1090,
      "185": 1091,
      "997": 1092,
      "280a": 1093,
      "253": 1094,
      "2574": 1095,
      "2023": 1096,
      "206C": 1097,
      "46009": 1098,
      "cussions": 1099,
      "22bb": 1100,
      "6743": 1101,
      "6772": 1102,
      "061": 1103,
      "062": 1104,
      "0653": 1105,
      "452": 1106,
      "196Zm0": 1107,
      "196zm0": 1108,
      "alt": 1109,
      "953": 1110,
      "76c": 1111,
      "license": 1112,
      "27312": 1113,
      "65f": 1114,
      "077": 1115,
      "383": 1116,
      "3839": 1117,
      "head": 1118,
      "557": 1119,
      "556a": 1120,
      "cursor": 1121,
      "descript": 1122,
      "decor": 1123,
      "ime": 1124,
      "496": 1125,
      "8626": 1126,
      "31v": 1127,
      "thumb": 1128,
      "094": 1129,
      "09359": 1130,
      "9727": 1131,
      "971597e": 1132,
      "6875": 1133,
      "absol": 1134,
      "logo": 1135,
      "linear": 1136,
      "78473": 1137,
      "8725": 1138,
      "82c": 1139,
      "ated": 1140,
      "ZM6": 1141,
      "573": 1142,
      "01a": 1143,
      "2h3": 1144,
      "2h8a1": 1145,
      "whitespace": 1146,
      "8545": 1147,
      "api": 1148,
      "nails": 1149,
      "2V4": 1150,
      "197v3": 1151,
      "3a3": 1152,
      "3C24": 1153,
      "polars": 1154,
      "91406": 1155,
      "models": 1156,
      "343280a": 1157,
      "guest": 1158,
      "99H8": 1159,
      "comm": 1160,
      "23628": 1161,
      "2246C": 1162,
      "8753": 1163,
      "cdn": 1164,
      "ellip": 1165,
      "50686": 1166,
      "5484": 1167,
      "4172": 1168,
      "8273": 1169,
      "1173": 1170,
      "62314": 1171,
      "8258": 1172,
      "83968": 1173,
      "File": 1174,
      "fa343280a": 1175,
      "Datasets": 1176,
      "5237": 1177,
      "9d0f": 1178,
      "ource": 1179,
      "avatars": 1180,
      "72688": 1181,
      "10457": 1182,
      "08594": 1183,
      "3abfa343280a": 1184,
      "54411": 1185,
      "6107C": 1186,
      "82036": 1187,
      "9f3abfa343280a": 1188,
      "90641": 1189,
      ":\\/\\/": 1190,
      "discussions": 1191,
      "issant": 1192,
      "22bb971597e": 1193,
      "description": 1194,
      "decoration": 1195,
      "thumbnails": 1196,
      "absolute": 1197,
      "guestTheme": 1198,
      "ellipse": 1199,
      "9d0f65f": 1200,
      "9f3abfa343280a9d0f65f": 1201,
      "22bb971597e9f3abfa343280a9d0f65f": 1202,
      "!--": 1203,
      "\";": 1204,
      ").": 1205,
      ".\"": 1206,
      "0B": 1207,
      "0c": 1208,
      "015": 1209,
      "099": 1210,
      "076": 1211,
      "034": 1212,
      "038": 1213,
      "0de": 1214,
      "031": 1215,
      "035l": 1216,
      "1C": 1217,
      "119": 1218,
      "113": 1219,
      "118": 1220,
      "2L": 1221,
      "213": 1222,
      "243": 1223,
      "217": 1224,
      "299": 1225,
      "2xl": 1226,
      "323": 1227,
      "308": 1228,
      "3ZM": 1229,
      "3c0": 1230,
      "3Zm": 1231,
      "4l": 1232,
      "412": 1233,
      "446": 1234,
      "499H": 1235,
      "528": 1236,
      "508": 1237,
      "522": 1238,
      "5ZM": 1239,
      "5125": 1240,
      "5C9": 1241,
      "6Z": 1242,
      "646": 1243,
      "639": 1244,
      "606": 1245,
      "605": 1246,
      "634": 1247,
      "61a": 1248,
      "7a": 1249,
      "7e": 1250,
      "7h": 1251,
      "715": 1252,
      "717": 1253,
      "799": 1254,
      "725": 1255,
      "724": 1256,
      "707": 1257,
      "8h": 1258,
      "843": 1259,
      "826": 1260,
      "808": 1261,
      "835": 1262,
      "865": 1263,
      "848": 1264,
      "886": 1265,
      "894": 1266,
      "857": 1267,
      "9h": 1268,
      "926": 1269,
      "939": 1270,
      "945": 1271,
      "904": 1272,
      "965": 1273,
      ";]},&": 1274,
      "A7": 1275,
      "Eng": 1276,
      "Face": 1277,
      "H2": 1278,
      "He": 1279,
      "Hf": 1280,
      "H12": 1281,
      "Hugging": 1282,
      "H10V": 1283,
      "H2V4": 1284,
      "La": 1285,
      "L11": 1286,
      "M1": 1287,
      "M8": 1288,
      "M14": 1289,
      "M28": 1290,
      "Re": 1291,
      "TA": 1292,
      "V3": 1293,
      "V5": 1294,
      "View": 1295,
      "Xet": 1296,
      "_id": 1297,
      "ak": 1298,
      "bo": 1299,
      "bs": 1300,
      "ble": 1301,
      "bas": 1302,
      "c1": 1303,
      "c2": 1304,
      "cb": 1305,
      "cre": 1306,
      "cal": 1307,
      "che": 1308,
      "clo": 1309,
      "df": 1310,
      "ds": 1311,
      "dv": 1312,
      "ding": 1313,
      "ea": 1314,
      "fer": 1315,
      "fron": 1316,
      "ge": 1317,
      "gh": 1318,
      "gre": 1319,
      "h1": 1320,
      "h3": 1321,
      "hor": 1322,
      "il": 1323,
      "ke": 1324,
      "kub": 1325,
      "l2": 1326,
      "lot": 1327,
      "mono": 1328,
      "nk": 1329,
      "pi": 1330,
      "pl": 1331,
      "pri": 1332,
      "pap": 1333,
      "rot": 1334,
      "sw": 1335,
      "sub": 1336,
      "source": 1337,
      "slot": 1338,
      "tw": 1339,
      "time": 1340,
      "up": 1341,
      "v6": 1342,
      "v7": 1343,
      "we": 1344,
      "xet": 1345,
      "{\"": 1346,
      "}\"><": 1347,
      "198": 1348,
      "19v": 1349,
      "19zm": 1350,
      "tell": 1351,
      "197zm0": 1352,
      "lay": 1353,
      "inde": 1354,
      "intell": 1355,
      "end": 1356,
      "enco": 1357,
      "138a": 1358,
      "lete": 1359,
      "12l": 1360,
      "12z": 1361,
      "141": 1362,
      "144": 1363,
      "14a": 1364,
      "14c": 1365,
      "106": 1366,
      "10l": 1367,
      "10H28": 1368,
      "1558": 1369,
      "resol": 1370,
      "169": 1371,
      "16042": 1372,
      "llow": 1373,
      "188": 1374,
      "18V4": 1375,
      "18H2V4": 1376,
      "993": 1377,
      "994": 1378,
      "998": 1379,
      "row": 1380,
      "2875": 1381,
      "28H10V": 1382,
      "html": 1383,
      "splay": 1384,
      "756": 1385,
      "75452": 1386,
      "244": 1387,
      "23674": 1388,
      "262": 1389,
      "2607": 1390,
      "fic": 1391,
      "465": 1392,
      "083": 1393,
      "0820": 1394,
      "08e8": 1395,
      "08099": 1396,
      "3944": 1397,
      "193Zm0": 1398,
      "065": 1399,
      "45807": 1400,
      "1964": 1401,
      "196V": 1402,
      "950": 1403,
      "mlcro": 1404,
      "terti": 1405,
      "ently": 1406,
      "293": 1407,
      "358": 1408,
      "768": 1409,
      "048": 1410,
      "049": 1411,
      "lish": 1412,
      "27a": 1413,
      "074": 1414,
      "07c": 1415,
      "0776": 1416,
      "37499H": 1417,
      "984": 1418,
      "9808": 1419,
      "552a": 1420,
      "ign": 1421,
      "defer": 1422,
      "image": 1423,
      "imary": 1424,
      "497": 1425,
      "this": 1426,
      "000Z": 1427,
      "641": 1428,
      "refs": 1429,
      "44466": 1430,
      "360de": 1431,
      "472": 1432,
      "viewer": 1433,
      "585": 1434,
      "783": 1435,
      "82A7": 1436,
      "53109": 1437,
      "itter": 1438,
      "ripe": 1439,
      "30221": 1440,
      "isHf": 1441,
      "83049": 1442,
      "56326": 1443,
      "stories": 1444,
      "ZM1": 1445,
      "ZM3": 1446,
      "ZM4": 1447,
      "8537": 1448,
      "6375": 1449,
      "tom": 1450,
      "2V10a2": 1451,
      "2V28a2": 1452,
      ";}],&": 1453,
      "proble": 1454,
      "73l": 1455,
      "196v1": 1456,
      "196v3": 1457,
      "blob": 1458,
      "fonts": 1459,
      "blank": 1460,
      "2H10a2": 1461,
      "2H28a2": 1462,
      "2H18V4": 1463,
      "80016": 1464,
      "00039C8": 1465,
      "V4h": 1466,
      "author": 1467,
      "99H2": 1468,
      "spaces": 1469,
      "136v2": 1470,
      "193v1": 1471,
      "downloads": 1472,
      ");\"><": 1473,
      "3c1": 1474,
      "548526": 1475,
      "display": 1476,
      "0945V6": 1477,
      "H4Z": 1478,
      "9999C8": 1479,
      "9999C1": 1480,
      "03749": 1481,
      "Fix": 1482,
      "primary": 1483,
      "Dataset": 1484,
      "408l": 1485,
      "10V28H10V": 1486,
      "17749": 1487,
      "2946C14": 1488,
      "48029": 1489,
      "4933C28": 1490,
      "88125V5": 1491,
      "Text": 1492,
      "39584": 1493,
      "87377C": 1494,
      "FF9D0B": 1495,
      "Commit": 1496,
      "container": 1497,
      "6978": 1498,
      "84417": 1499,
      "14635": 1500,
      "commit": 1501,
      "Files": 1502,
      "865993": 1503,
      "92699": 1504,
      "94549": 1505,
      "English": 1506,
      "Header": 1507,
      "Viewer": 1508,
      "basis": 1509,
      "front": 1510,
      "green": 1511,
      "ild": 1512,
      "kube": 1513,
      "paper": 1514,
      "rotate": 1515,
      "twitter": 1516,
      "index": 1517,
      "intellig": 1518,
      "encoding": 1519,
      "10H28m0": 1520,
      "15588": 1521,
      "resolve": 1522,
      "18H2V4A2": 1523,
      "08e8472": 1524,
      "39444": 1525,
      "mlcroissant": 1526,
      "tertiary": 1527,
      "360deg": 1528,
      "problem": 1529,
      "2H18V4H4Z": 1530,
      "10V28H10V10H28m0": 1531,
      "\");": 1532,
      "(\"": 1533,
      "('": 1534,
      ")]": 1535,
      "));": 1536,
      ".\\": 1537,
      "/</": 1538,
      "0Z": 1539,
      "018": 1540,
      "025": 1541,
      "023": 1542,
      "067": 1543,
      "027": 1544,
      "098": 1545,
      "0V4": 1546,
      "1c": 1547,
      "1z": 1548,
      "1197": 1549,
      "1C6": 1550,
      "11964": 1551,
      "2C": 1552,
      "212": 1553,
      "218": 1554,
      "276": 1555,
      "2c0": 1556,
      "2C16": 1557,
      "2v4": 1558,
      "2139": 1559,
      "3B": 1560,
      "3s": 1561,
      "314": 1562,
      "317": 1563,
      "346": 1564,
      "345": 1565,
      "329": 1566,
      "304": 1567,
      "327": 1568,
      "305": 1569,
      "3px": 1570,
      "3177": 1571,
      "3074": 1572,
      "4b": 1573,
      "410": 1574,
      "415": 1575,
      "418": 1576,
      "411": 1577,
      "422": 1578,
      "405": 1579,
      "4a1": 1580,
      "4zm0": 1581,
      "4139": 1582,
      "4169": 1583,
      "5h": 1584,
      "5z": 1585,
      "575": 1586,
      "546": 1587,
      "545": 1588,
      "505": 1589,
      "538": 1590,
      "531": 1591,
      "509": 1592,
      "502": 1593,
      "579": 1594,
      "5C8": 1595,
      "5C5": 1596,
      "5C16": 1597,
      "5C20": 1598,
      "5284": 1599,
      "5057": 1600,
      "5497": 1601,
      "6H": 1602,
      "6h": 1603,
      "619": 1604,
      "615": 1605,
      "643": 1606,
      "617": 1607,
      "618": 1608,
      "633": 1609,
      "695": 1610,
      "665": 1611,
      "649": 1612,
      "694": 1613,
      "6zm": 1614,
      "6236": 1615,
      "6075": 1616,
      "6077": 1617,
      "7d": 1618,
      "7v": 1619,
      "746": 1620,
      "722": 1621,
      "767": 1622,
      "745": 1623,
      "795": 1624,
      "738": 1625,
      "748": 1626,
      "794": 1627,
      "7a1": 1628,
      "74a": 1629,
      "7043": 1630,
      "7956": 1631,
      "7283": 1632,
      "7458": 1633,
      "74395": 1634,
      "727a": 1635,
      "8e": 1636,
      "8f": 1637,
      "8z": 1638,
      "810": 1639,
      "816": 1640,
      "895": 1641,
      "805": 1642,
      "877": 1643,
      "882": 1644,
      "84a": 1645,
      "803": 1646,
      "8C17": 1647,
      "8956": 1648,
      "8994": 1649,
      "9C": 1650,
      "943": 1651,
      "916": 1652,
      "918": 1653,
      "928": 1654,
      "933": 1655,
      "927": 1656,
      "934": 1657,
      "964": 1658,
      "9674": 1659,
      "9139": 1660,
      "9394": 1661,
      "9C12": 1662,
      "9057": 1663,
      "9756": 1664,
      ";/": 1665,
      "<!--": 1666,
      "A1": 1667,
      "Api": 1668,
      "By": 1669,
      "Blo": 1670,
      "C24": 1671,
      "C23": 1672,
      "C27": 1673,
      "Dis": 1674,
      "Dev": 1675,
      "Dask": 1676,
      "Ele": 1677,
      "GB": 1678,
      "GP": 1679,
      "G_": 1680,
      "Git": 1681,
      "H5": 1682,
      "H7": 1683,
      "HT": 1684,
      "H17": 1685,
      "Ka": 1686,
      "L1": 1687,
      "L4": 1688,
      "L_": 1689,
      "L17": 1690,
      "Lan": 1691,
      "Larg": 1692,
      "M2": 1693,
      "M18": 1694,
      "M25": 1695,
      "Main": 1696,
      "ML_": 1697,
      "Na": 1698,
      "Pub": 1699,
      "SO": 1700,
      "Size": 1701,
      "Ty": 1702,
      "T16": 1703,
      "The": 1704,
      "User": 1705,
      "V10": 1706,
      "V20": 1707,
      "V11": 1708,
      "We": 1709,
      "_blank": 1710,
      "a7": 1711,
      "af": 1712,
      "aj": 1713,
      "aw": 1714,
      "ax": 1715,
      "a12": 1716,
      "a80": 1717,
      "atern": 1718,
      "a0c": 1719,
      "bu": 1720,
      "bot": 1721,
      "bre": 1722,
      "bet": 1723,
      "bcf": 1724,
      "bd5": 1725,
      "b185": 1726,
      "bcb": 1727,
      "ca": 1728,
      "cx": 1729,
      "cy": 1730,
      "cing": 1731,
      "c3839": 1732,
      "dc": 1733,
      "dl": 1734,
      "du": 1735,
      "dy": 1736,
      "dem": 1737,
      "dig": 1738,
      "date": 1739,
      "d0a": 1740,
      "ft": 1741,
      "fun": 1742,
      "gr": 1743,
      "ght": 1744,
      "grow": 1745,
      "h2": 1746,
      "hr": 1747,
      "has": 1748,
      "hub": 1749,
      "ill": 1750,
      "ico": 1751,
      "ice": 1752,
      "ily": 1753,
      "ience": 1754,
      "jo": 1755,
      "jour": 1756,
      "k_": 1757,
      "kate": 1758,
      "ked": 1759,
      "l1": 1760,
      "lf": 1761,
      "m1": 1762,
      "mily": 1763,
      "ney": 1764,
      "of": 1765,
      "ost": 1766,
      "put": 1767,
      "png": 1768,
      "port": 1769,
      "pk_": 1770,
      "rx": 1771,
      "ries": 1772,
      "right": 1773,
      "ring": 1774,
      "rati": 1775,
      "s0": 1776,
      "s2": 1777,
      "s9": 1778,
      "sy": 1779,
      "ste": 1780,
      "soc": 1781,
      "tre": 1782,
      "ting": 1783,
      "tiny": 1784,
      "ul": 1785,
      "ure": 1786,
      "use": 1787,
      "udf": 1788,
      "v2": 1789,
      "v8": 1790,
      "v9": 1791,
      "van": 1792,
      "via": 1793,
      "v2h": 1794,
      "wor": 1795,
      "wght": 1796,
      "},": 1797,
      "}}": 1798,
      "·</": 1799,
      "=\"\">": 1800,
      "=\"{}": 1801,
      "194": 1802,
      "1987": 1803,
      "1953": 1804,
      "1989": 1805,
      "19C20": 1806,
      "198a": 1807,
      "19C17": 1808,
      "quatern": 1809,
      "197Zm0": 1810,
      "197V6": 1811,
      "197m1": 1812,
      "001": 1813,
      "007": 1814,
      "0053": 1815,
      "00002": 1816,
      "00204": 1817,
      "lare": 1818,
      "indig": 1819,
      "input": 1820,
      "133": 1821,
      "134": 1822,
      "1319": 1823,
      "1397": 1824,
      "13192": 1825,
      "13C5": 1826,
      "13C20": 1827,
      "1351": 1828,
      "13012": 1829,
      "133C24": 1830,
      "13V20": 1831,
      "lect": 1832,
      "leap": 1833,
      "left": 1834,
      "ore": 1835,
      "ory": 1836,
      "12T": 1837,
      "1295": 1838,
      "12C5": 1839,
      "12C14": 1840,
      "12C18": 1841,
      "1296": 1842,
      "1261": 1843,
      "12L3": 1844,
      "12v9": 1845,
      "classNa": 1846,
      "onload": 1847,
      "1442": 1848,
      "ide": 1849,
      "107": 1850,
      "1076": 1851,
      "1032": 1852,
      "1036": 1853,
      "1069": 1854,
      "1085": 1855,
      "1084": 1856,
      "art": 1857,
      "arch": 1858,
      "arti": 1859,
      "151": 1860,
      "152": 1861,
      "156": 1862,
      "157": 1863,
      "158": 1864,
      "15Z": 1865,
      "435": 1866,
      "436": 1867,
      "4322": 1868,
      "4331": 1869,
      "4358": 1870,
      "4353": 1871,
      "4379": 1872,
      "439a": 1873,
      "164": 1874,
      "165": 1875,
      "1625": 1876,
      "16a2": 1877,
      "1684": 1878,
      "16799": 1879,
      "16133C24": 1880,
      "171": 1881,
      "173": 1882,
      "175": 1883,
      "1799": 1884,
      "1775": 1885,
      "1776": 1886,
      "1727": 1887,
      "1731": 1888,
      "1709": 1889,
      "173a": 1890,
      "17411": 1891,
      "1839": 1892,
      "1838": 1893,
      "1879": 1894,
      "18C16": 1895,
      "18125": 1896,
      "18C18": 1897,
      "18C30": 1898,
      "18101": 1899,
      "18T16": 1900,
      "999": 1901,
      "99f": 1902,
      "9976": 1903,
      "9998": 1904,
      "9947": 1905,
      "9979": 1906,
      "28094": 1907,
      "28928": 1908,
      "25dd": 1909,
      "25468": 1910,
      "253h": 1911,
      "25v7": 1912,
      "set": 1913,
      "section": 1914,
      "self": 1915,
      "select": 1916,
      "75a": 1917,
      "7523": 1918,
      "75C16": 1919,
      "75410": 1920,
      "203": 1921,
      "207": 1922,
      "208": 1923,
      "2076": 1924,
      "2086": 1925,
      "2053": 1926,
      "20a2": 1927,
      "2054": 1928,
      "20343": 1929,
      "20V13": 1930,
      "20997": 1931,
      "205C16": 1932,
      "248": 1933,
      "249": 1934,
      "24h": 1935,
      "2499": 1936,
      "2408": 1937,
      "2427": 1938,
      "24a1": 1939,
      "24723": 1940,
      "24L12": 1941,
      "233": 1942,
      "2316": 1943,
      "2325": 1944,
      "2324": 1945,
      "2368": 1946,
      "2387": 1947,
      "2382": 1948,
      "2388": 1949,
      "23C18": 1950,
      "23458": 1951,
      "23916": 1952,
      "2318C30": 1953,
      "268": 1954,
      "2616": 1955,
      "2617": 1956,
      "2606": 1957,
      "2677": 1958,
      "2678": 1959,
      "262a": 1960,
      "267e": 1961,
      "136Zm": 1962,
      "136zm0": 1963,
      "136V9": 1964,
      "11a2": 1965,
      "467": 1966,
      "4669": 1967,
      "468a": 1968,
      "46623": 1969,
      "086": 1970,
      "088": 1971,
      "0863": 1972,
      "08658": 1973,
      "08204": 1974,
      "08641": 1975,
      "3948": 1976,
      "3979": 1977,
      "393a": 1978,
      "3952": 1979,
      "39343": 1980,
      "39783": 1981,
      "2214": 1982,
      "22C8": 1983,
      "222C": 1984,
      "2219C20": 1985,
      "678": 1986,
      "6797": 1987,
      "6744": 1988,
      "6794": 1989,
      "67023": 1990,
      "193zm": 1991,
      "193V7": 1992,
      "06b": 1993,
      "06h": 1994,
      "0693": 1995,
      "06535": 1996,
      "06476": 1997,
      "06886": 1998,
      "4512": 1999,
      "4511": 2000,
      "4579": 2001,
      "196V6": 2002,
      "332": 2003,
      "3306": 2004,
      "alog": 2005,
      "952": 2006,
      "954": 2007,
      "95933": 2008,
      "terpri": 2009,
      "21C0": 2010,
      "21L4": 2011,
      "2112C14": 2012,
      "2118C16": 2013,
      "29c": 2014,
      "2934": 2015,
      "2949": 2016,
      "29C16": 2017,
      "3534": 2018,
      "3536": 2019,
      "35262": 2020,
      "356375": 2021,
      "\">/</": 2022,
      "\">·</": 2023,
      "7637": 2024,
      "7655": 2025,
      "7682": 2026,
      "7684": 2027,
      "047": 2028,
      "04l": 2029,
      "0428": 2030,
      "04476": 2031,
      "lic": 2032,
      "libs": 2033,
      "like": 2034,
      "654": 2035,
      "656": 2036,
      "6523": 2037,
      "6548": 2038,
      "658a": 2039,
      "6575C16": 2040,
      "07L": 2041,
      "0783": 2042,
      "rough": 2043,
      "058": 2044,
      "05l": 2045,
      "0539": 2046,
      "052c0": 2047,
      "3477": 2048,
      "3499H2": 2049,
      "3837": 2050,
      "38a5": 2051,
      "38043": 2052,
      "38031": 2053,
      "38415": 2054,
      "3726": 2055,
      "3704": 2056,
      "3771": 2057,
      "37a3": 2058,
      "48a": 2059,
      "4808": 2060,
      "48a2": 2061,
      "48Zm0": 2062,
      "48658": 2063,
      "48545": 2064,
      "484669": 2065,
      "9839": 2066,
      "9833": 2067,
      "9865": 2068,
      "9842": 2069,
      "9870": 2070,
      "98141": 2071,
      "552": 2072,
      "55c": 2073,
      "5513": 2074,
      "5581": 2075,
      "32C21": 2076,
      "dev": 2077,
      "de528": 2078,
      "delete": 2079,
      "active": 2080,
      "ac25dd": 2081,
      "4923": 2082,
      "49196": 2083,
      "4937": 2084,
      "49039": 2085,
      "496C": 2086,
      "8646": 2087,
      "8668": 2088,
      "86114": 2089,
      "86808": 2090,
      "31Z": 2091,
      "31c": 2092,
      "31Zm0": 2093,
      "31v4": 2094,
      "through": 2095,
      "0914": 2096,
      "0907": 2097,
      "0934": 2098,
      "64Z": 2099,
      "6445": 2100,
      "6471": 2101,
      "6499H8": 2102,
      "97Z": 2103,
      "97a": 2104,
      "97101": 2105,
      "mes": 2106,
      "refer": 2107,
      "4428": 2108,
      "44225": 2109,
      "44221": 2110,
      "44128": 2111,
      "4419C17": 2112,
      "4418C18": 2113,
      "6841": 2114,
      "02c": 2115,
      "02h": 2116,
      "02205C16": 2117,
      "36a": 2118,
      "36275": 2119,
      "follow": 2120,
      "4731": 2121,
      "77c": 2122,
      "7723": 2123,
      "7722": 2124,
      "7747": 2125,
      "9416": 2126,
      "9401": 2127,
      "advan": 2128,
      "666": 2129,
      "66a5": 2130,
      "5898": 2131,
      "5842": 2132,
      "5841": 2133,
      "7821": 2134,
      "78Zm": 2135,
      "78083": 2136,
      "8798": 2137,
      "87a5": 2138,
      "87017": 2139,
      "192m0": 2140,
      "192V6": 2141,
      "192H17": 2142,
      "5311": 2143,
      "5346": 2144,
      "53158": 2145,
      "ities": 2146,
      "3039": 2147,
      "301h": 2148,
      "4a4": 2149,
      "conver": 2150,
      "const": 2151,
      "ist": 2152,
      "isPro": 2153,
      "8314": 2154,
      "8326": 2155,
      "sca": 2156,
      "science": 2157,
      "abled": 2158,
      "5625": 2159,
      "563a": 2160,
      "696": 2161,
      "6932": 2162,
      "7928": 2163,
      "7963": 2164,
      "793C": 2165,
      "7929C16": 2166,
      "stripe": 2167,
      "start": 2168,
      "ZM2": 2169,
      "ZM5": 2170,
      "ZM8": 2171,
      "ZM14": 2172,
      "0364": 2173,
      "574": 2174,
      "9311": 2175,
      "93678": 2176,
      "01z": 2177,
      "01L12": 2178,
      "2h16a2": 2179,
      "tags": 2180,
      "0391": 2181,
      "85Z": 2182,
      "8533": 2183,
      "85185": 2184,
      "unity": 2185,
      "5006": 2186,
      "50087": 2187,
      "71z": 2188,
      "7115": 2189,
      "71L11": 2190,
      "8928": 2191,
      "8939": 2192,
      "89634": 2193,
      "8921C0": 2194,
      "92a": 2195,
      "9299": 2196,
      "54c": 2197,
      "5416": 2198,
      "10076": 2199,
      "62a5": 2200,
      "app": 2201,
      "nav": 2202,
      "2V12l": 2203,
      ";},&": 2204,
      ";}]},&": 2205,
      "produ": 2206,
      "6001": 2207,
      "6008C17": 2208,
      "6009C": 2209,
      "7219": 2210,
      "gged": 2211,
      "3C14": 2212,
      "3C21": 2213,
      "7C0": 2214,
      "7C13": 2215,
      "7C16": 2216,
      "7C29": 2217,
      "3759": 2218,
      "37587": 2219,
      "73v": 2220,
      "9116": 2221,
      "9117": 2222,
      "59V3": 2223,
      "\":{\"": 2224,
      "4046": 2225,
      "40207": 2226,
      "6C23": 2227,
      "9146": 2228,
      "blame": 2229,
      "moon": 2230,
      "00039C1": 2231,
      "2a14": 2232,
      "3433": 2233,
      "3434": 2234,
      "6082": 2235,
      "00602": 2236,
      "targetCommit": 2237,
      "66715": 2238,
      "9646": 2239,
      "136v1": 2240,
      "67446": 2241,
      "674v4": 2242,
      "2246Z": 2243,
      "3Atext": 2244,
      "3A3B": 2245,
      "3ca0c": 2246,
      "4147": 2247,
      "4148": 2248,
      "723a80": 2249,
      "8021": 2250,
      "80997": 2251,
      "80208": 2252,
      "8753C14": 2253,
      "9174": 2254,
      "ocrati": 2255,
      "ogleap": 2256,
      "place": 2257,
      "0753": 2258,
      "09583": 2259,
      "2v12h": 2260,
      "506a": 2261,
      "50675": 2262,
      "5485": 2263,
      "7754": 2264,
      "7758": 2265,
      "7759": 2266,
      "9089": 2267,
      "908a": 2268,
      "dialog": 2269,
      "46842": 2270,
      "0945ZM4": 2271,
      "0v5": 2272,
      "0v2h3": 2273,
      "22536": 2274,
      "302h": 2275,
      "302V2": 2276,
      "4171": 2277,
      "4179C12": 2278,
      "82749": 2279,
      "95917Z": 2280,
      "95917C20": 2281,
      "9402C18": 2282,
      "9403C18": 2283,
      "9403C30": 2284,
      "03795": 2285,
      "03748": 2286,
      "11705": 2287,
      "42854": 2288,
      "8393": 2289,
      "8555": 2290,
      "V7h": 2291,
      "family": 2292,
      "75937": 2293,
      "956a": 2294,
      "-->": 2295,
      "2c3ca0c": 2296,
      "4263": 2297,
      "42666": 2298,
      "4263C24": 2299,
      "7372": 2300,
      "73791": 2301,
      "bbc3839": 2302,
      "googleap": 2303,
      "noscript": 2304,
      "users": 2305,
      "16355C11": 2306,
      "20438H12": 2307,
      "files": 2308,
      "6726C20": 2309,
      "33114C10": 2310,
      "33111C10": 2311,
      "0522C24": 2312,
      "48027": 2313,
      "6837C11": 2314,
      "8345C7": 2315,
      "93643C26": 2316,
      "5181C18": 2317,
      "0264c": 2318,
      "3266": 2319,
      "49588": 2320,
      "5V11": 2321,
      "5V5C5": 2322,
      "53382": 2323,
      "5763": 2324,
      "53472": 2325,
      "6l3": 2326,
      "62499H": 2327,
      "713C14": 2328,
      "7131C": 2329,
      "8361": 2330,
      "Models": 2331,
      "TeX": 2332,
      "css2": 2333,
      "39581": 2334,
      "333a1": 2335,
      "041c0": 2336,
      "192v2": 2337,
      "192v5": 2338,
      "FF9D00": 2339,
      "Community": 2340,
      "0l6": 2341,
      "0124": 2342,
      "01707": 2343,
      "44319": 2344,
      "44316": 2345,
      "4256": 2346,
      "5ebbc3839": 2347,
      "52499": 2348,
      "64858": 2349,
      "71489": 2350,
      "9461": 2351,
      "94613": 2352,
      "===": 2353,
      "Pointer": 2354,
      "Polars": 2355,
      "See": 2356,
      "Search": 2357,
      "V13a1": 2358,
      "baseline": 2359,
      "docs": 2360,
      "match": 2361,
      "valid": 2362,
      "value": 2363,
      "{};": 2364,
      "13828": 2365,
      "13831": 2366,
      "12804": 2367,
      "12h2v12h": 2368,
      "1752C28": 2369,
      "1752C26": 2370,
      "206C3": 2371,
      "206C9": 2372,
      "67434": 2373,
      "97271": 2374,
      "97273C": 2375,
      "01a44": 2376,
      "2246C3": 2377,
      "2246C6": 2378,
      "cdnjs": 2379,
      "6107C28": 2380,
      "6107C27": 2381,
      "0342": 2382,
      "0389": 2383,
      "1131C6": 2384,
      "2439": 2385,
      "29997": 2386,
      "3ZM20": 2387,
      "3Zm4": 2388,
      "4121": 2389,
      "5229": 2390,
      "60602": 2391,
      "60556": 2392,
      "61a8": 2393,
      "7177C29": 2394,
      "7242": 2395,
      "84373": 2396,
      "8269": 2397,
      "835a": 2398,
      "9393": 2399,
      "9653": 2400,
      "Last": 2401,
      "TAG_": 2402,
      "body": 2403,
      "created": 2404,
      "calc": 2405,
      "ches": 2406,
      "cloudf": 2407,
      "dvh": 2408,
      "eaac25dd": 2409,
      "swap": 2410,
      "ween": 2411,
      "ficial": 2412,
      "06532C21": 2413,
      "76842": 2414,
      "585v4": 2415,
      "5485261731": 2416,
      "intelligence": 2417,
      "02782": 2418,
      "0982": 2419,
      "21853": 2420,
      "31737": 2421,
      "34591": 2422,
      "3274": 2423,
      "57517": 2424,
      "5093": 2425,
      "50224": 2426,
      "61583": 2427,
      "64365": 2428,
      "61864": 2429,
      "633723a80": 2430,
      "6659": 2431,
      "722h": 2432,
      "76725": 2433,
      "7459": 2434,
      "738a": 2435,
      "7489": 2436,
      "74a5": 2437,
      "8e5ebbc3839": 2438,
      "81026": 2439,
      "8956C23": 2440,
      "8053": 2441,
      "87776": 2442,
      "88295": 2443,
      "94323C18": 2444,
      "9347": 2445,
      "Disabled": 2446,
      "Element": 2447,
      "GPT": 2448,
      "HTML_": 2449,
      "KaTeX": 2450,
      "Language": 2451,
      "Large": 2452,
      "Public": 2453,
      "Type": 2454,
      "ajax": 2455,
      "build": 2456,
      "bottom": 2457,
      "break": 2458,
      "between": 2459,
      "bcf0264c": 2460,
      "democrati": 2461,
      "d0a9870": 2462,
      "function": 2463,
      "grid": 2464,
      "join": 2465,
      "journey": 2466,
      "katex": 2467,
      "stem": 2468,
      "social": 2469,
      "tree": 2470,
      "tinystories": 2471,
      "words": 2472,
      "=\"{}\"></": 2473,
      "19872": 2474,
      "quaternary": 2475,
      "indigo": 2476,
      "13V20C20": 2477,
      "classNames": 2478,
      "1085C14": 2479,
      "1084C9": 2480,
      "artificial": 2481,
      "4322C30": 2482,
      "17757C13": 2483,
      "1776C12": 2484,
      "1727C21": 2485,
      "17411C29": 2486,
      "1839C27": 2487,
      "1838C28": 2488,
      "25468C14": 2489,
      "754104": 2490,
      "20V13C5": 2491,
      "267ebcf0264c": 2492,
      "39484": 2493,
      "222C19": 2494,
      "06535C21": 2495,
      "terprise": 2496,
      "3534C29": 2497,
      "35369": 2498,
      "6548C29": 2499,
      "38377": 2500,
      "38415C23": 2501,
      "de5282c3ca0c": 2502,
      "496C15": 2503,
      "44225C17": 2504,
      "44221C20": 2505,
      "36275C8": 2506,
      "advance": 2507,
      "301h2": 2508,
      "793C19": 2509,
      "2V12l8": 2510,
      "production": 2511,
      "6009C25": 2512,
      "ggedIn": 2513,
      "3A3B45": 2514,
      "googleapis": 2515,
      "7131C13": 2516,
      "cloudflare": 2517,
      "eaac25dd8e5ebbc3839": 2518,
      "5485261731eaac25dd8e5ebbc3839": 2519,
      "633723a80267ebcf0264c": 2520,
      "HTML_TAG_": 2521,
      "democratize": 2522,
      "d0a9870b185": 2523,
      "5485261731eaac25dd8e5ebbc3839d0a9870b185": 2524,
      "633723a80267ebcf0264c06b": 2525,
      "\"/": 2526,
      "\"]": 2527,
      "\"}}": 2528,
      "%-": 2529,
      "&&": 2530,
      "')": 2531,
      "',": 2532,
      "';": 2533,
      "').": 2534,
      "(!": 2535,
      "((": 2536,
      "()": 2537,
      "(/": 2538,
      "([": 2539,
      "(\\": 2540,
      "({": 2541,
      "(</": 2542,
      "))": 2543,
      "),": 2544,
      ")/": 2545,
      ")?": 2546,
      ")</": 2547,
      ")\",\"": 2548,
      ")').": 2549,
      "+)/": 2550,
      ".&": 2551,
      "..": 2552,
      ".[": 2553,
      ".</": 2554,
      "/\"><": 2555,
      "/\";": 2556,
      "0d": 2557,
      "019": 2558,
      "013": 2559,
      "014": 2560,
      "011": 2561,
      "045": 2562,
      "029": 2563,
      "030": 2564,
      "0Zm": 2565,
      "06711": 2566,
      "0ff": 2567,
      "0L16": 2568,
      "0L5": 2569,
      "1Z": 2570,
      "1b": 2571,
      "1f": 2572,
      "1m": 2573,
      "112": 2574,
      "116": 2575,
      "1Zm": 2576,
      "1Zm0": 2577,
      "1V6": 2578,
      "1zm": 2579,
      "1H6": 2580,
      "1rem": 2581,
      "1La": 2582,
      "1V3": 2583,
      "1v6": 2584,
      "1H5": 2585,
      "2b": 2586,
      "2d": 2587,
      "2t": 2588,
      "214": 2589,
      "211": 2590,
      "295": 2591,
      "2a1": 2592,
      "2FF": 2593,
      "2cd": 2594,
      "2C4": 2595,
      "2rem": 2596,
      "21964": 2597,
      "2ZM8": 2598,
      "3M": 2599,
      "3Z": 2600,
      "3f": 2601,
      "3l": 2602,
      "3v": 2603,
      "3z": 2604,
      "318": 2605,
      "328": 2606,
      "322": 2607,
      "367": 2608,
      "306": 2609,
      "3000": 2610,
      "368": 2611,
      "3dd": 2612,
      "3L17": 2613,
      "3V10": 2614,
      "4Z": 2615,
      "499": 2616,
      "407": 2617,
      "448": 2618,
      "498": 2619,
      "403": 2620,
      "401": 2621,
      "4H4": 2622,
      "4C9": 2623,
      "443a": 2624,
      "41932": 2625,
      "4rem": 2626,
      "5L": 2627,
      "5Z": 2628,
      "5l": 2629,
      "5v": 2630,
      "513": 2631,
      "512": 2632,
      "514": 2633,
      "525": 2634,
      "511": 2635,
      "521": 2636,
      "507": 2637,
      "586": 2638,
      "597": 2639,
      "577": 2640,
      "566": 2641,
      "54a": 2642,
      "592": 2643,
      "5C0": 2644,
      "5cf": 2645,
      "514c": 2646,
      "5dc": 2647,
      "599f": 2648,
      "536a": 2649,
      "6B": 2650,
      "6e": 2651,
      "6f": 2652,
      "6g": 2653,
      "6z": 2654,
      "628": 2655,
      "675": 2656,
      "620": 2657,
      "629": 2658,
      "627": 2659,
      "638": 2660,
      "698": 2661,
      "632": 2662,
      "686": 2663,
      "668": 2664,
      "636": 2665,
      "6m0": 2666,
      "6a5": 2667,
      "697e": 2668,
      "6v2h": 2669,
      "7A": 2670,
      "7F": 2671,
      "7b": 2672,
      "7j": 2673,
      "7l": 2674,
      "7z": 2675,
      "720": 2676,
      "706": 2677,
      "704": 2678,
      "732": 2679,
      "744": 2680,
      "7dd": 2681,
      "742": 2682,
      "72h": 2683,
      "73a": 2684,
      "73C": 2685,
      "7032": 2686,
      "7a3": 2687,
      "7L6": 2688,
      "8M": 2689,
      "8d": 2690,
      "8l": 2691,
      "813": 2692,
      "815": 2693,
      "818": 2694,
      "824": 2695,
      "845": 2696,
      "829": 2697,
      "838": 2698,
      "898": 2699,
      "809": 2700,
      "802": 2701,
      "858": 2702,
      "878": 2703,
      "887": 2704,
      "856": 2705,
      "8a2": 2706,
      "8424": 2707,
      "8L16": 2708,
      "8rem": 2709,
      "8v6": 2710,
      "8v2h": 2711,
      "9V": 2712,
      "9v": 2713,
      "9z": 2714,
      "919": 2715,
      "912": 2716,
      "915": 2717,
      "911": 2718,
      "9193": 2719,
      "935": 2720,
      "949": 2721,
      "968": 2722,
      "969": 2723,
      "963": 2724,
      "962": 2725,
      "9125": 2726,
      "9V4": 2727,
      "9fa": 2728,
      "9L3": 2729,
      "90c": 2730,
      "924h": 2731,
      "9666": 2732,
      "9V13a1": 2733,
      ":\\": 2734,
      ";&": 2735,
      ";🇺": 2736,
      "<!": 2737,
      "=(\\": 2738,
      ">)</": 2739,
      ">.</": 2740,
      "?&": 2741,
      "A3": 2742,
      "A5": 2743,
      "AA": 2744,
      "Ad": 2745,
      "Ag": 2746,
      "Ar": 2747,
      "At": 2748,
      "A14": 2749,
      "All": 2750,
      "A25": 2751,
      "A11": 2752,
      "Add": 2753,
      "BC": 2754,
      "BM": 2755,
      "Be": 2756,
      "Ben": 2757,
      "Ban": 2758,
      "But": 2759,
      "Ch": 2760,
      "C13": 2761,
      "Con": 2762,
      "Can": 2763,
      "Cro": 2764,
      "CAA": 2765,
      "De": 2766,
      "Do": 2767,
      "Dp": 2768,
      "Deta": 2769,
      "Doc": 2770,
      "EF": 2771,
      "EN": 2772,
      "El": 2773,
      "En": 2774,
      "Ex": 2775,
      "E6B": 2776,
      "FX": 2777,
      "Fo": 2778,
      "For": 2779,
      "FC6": 2780,
      "GM": 2781,
      "Gener": 2782,
      "H1": 2783,
      "HS": 2784,
      "Ht": 2785,
      "H11": 2786,
      "How": 2787,
      "Huggingface": 2788,
      "HA25": 2789,
      "Id": 2790,
      "If": 2791,
      "It": 2792,
      "Ids": 2793,
      "IBM": 2794,
      "J6g": 2795,
      "L7": 2796,
      "Lo": 2797,
      "L13": 2798,
      "L14": 2799,
      "L15": 2800,
      "L28": 2801,
      "L22": 2802,
      "Log": 2803,
      "List": 2804,
      "M0": 2805,
      "M3": 2806,
      "M9": 2807,
      "Ma": 2808,
      "My": 2809,
      "M00": 2810,
      "M13": 2811,
      "Mon": 2812,
      "M10": 2813,
      "M24": 2814,
      "M26": 2815,
      "M11": 2816,
      "M46": 2817,
      "M39": 2818,
      "M22": 2819,
      "M21": 2820,
      "M38": 2821,
      "Mac": 2822,
      "M47": 2823,
      "M77": 2824,
      "M94": 2825,
      "M58": 2826,
      "M30": 2827,
      "M56": 2828,
      "Med": 2829,
      "M81": 2830,
      "M70": 2831,
      "Mono": 2832,
      "More": 2833,
      "Oe": 2834,
      "Oid": 2835,
      "Plex": 2836,
      "Pri": 2837,
      "Page": 2838,
      "PCAA": 2839,
      "RT": 2840,
      "Ro": 2841,
      "Ron": 2842,
      "Row": 2843,
      "Rna": 2844,
      "Raw": 2845,
      "S6": 2846,
      "Sh": 2847,
      "Sp": 2848,
      "Sy": 2849,
      "Ser": 2850,
      "S10": 2851,
      "San": 2852,
      "S22": 2853,
      "Set": 2854,
      "Sma": 2855,
      "Spe": 2856,
      "Sort": 2857,
      "Source": 2858,
      "STA": 2859,
      "Sign": 2860,
      "SSO": 2861,
      "SHA25": 2862,
      "Tab": 2863,
      "Task": 2864,
      "Title": 2865,
      "Time": 2866,
      "US": 2867,
      "Up": 2868,
      "UHS": 2869,
      "V8": 2870,
      "V14": 2871,
      "V16": 2872,
      "V2h": 2873,
      "V8h": 2874,
      "V24h": 2875,
      "Wide": 2876,
      "Xo": 2877,
      "Xiv": 2878,
      "Zh": 2879,
      "ZOe": 2880,
      "[]": 2881,
      "];": 2882,
      "]\"><": 2883,
      "__": 2884,
      "_o": 2885,
      "_x": 2886,
      "_data": 2887,
      "_lar": 2888,
      "_all": 2889,
      "_logo": 2890,
      "_defer": 2891,
      "_image": 2892,
      "a4": 2893,
      "aa": 2894,
      "ass": 2895,
      "a24": 2896,
      "a46": 2897,
      "a64": 2898,
      "aa1": 2899,
      "ascript": 2900,
      "aApi": 2901,
      "a6f": 2902,
      "bt": 2903,
      "by": 2904,
      "big": 2905,
      "bc0": 2906,
      "bed": 2907,
      "bold": 2908,
      "bjs": 2909,
      "bute": 2910,
      "b0d": 2911,
      "bPage": 2912,
      "c3": 2913,
      "cl": 2914,
      "color": 2915,
      "c1a": 2916,
      "cation": 2917,
      "c80": 2918,
      "call": 2919,
      "cently": 2920,
      "c5cf": 2921,
      "dj": 2922,
      "dk": 2923,
      "d15": 2924,
      "d5a": 2925,
      "d40": 2926,
      "d7d": 2927,
      "d233": 2928,
      "d401": 2929,
      "dDp": 2930,
      "e7": 2931,
      "ef": 2932,
      "eat": 2933,
      "ear": 2934,
      "ext": 2935,
      "e17": 2936,
      "e27": 2937,
      "e57": 2938,
      "ece": 2939,
      "e40": 2940,
      "e2c": 2941,
      "e118": 2942,
      "e2a14": 2943,
      "e5dc": 2944,
      "e90c": 2945,
      "fb": 2946,
      "f20": 2947,
      "f9d": 2948,
      "f725": 2949,
      "fea": 2950,
      "f54c": 2951,
      "f599f": 2952,
      "f706": 2953,
      "fc1a": 2954,
      "fd233": 2955,
      "feat": 2956,
      "gz": 2957,
      "gin": 2958,
      "git": 2959,
      "gst": 2960,
      "gated": 2961,
      "her": 2962,
      "h28": 2963,
      "hol": 2964,
      "heme": 2965,
      "hGit": 2966,
      "host": 2967,
      "hist": 2968,
      "iqu": 2969,
      "its": 2970,
      "ith": 2971,
      "iron": 2972,
      "ical": 2973,
      "iently": 2974,
      "icall": 2975,
      "ject": 2976,
      "jav": 2977,
      "ks": 2978,
      "kie": 2979,
      "l5": 2980,
      "lp": 2981,
      "l10": 2982,
      "l11": 2983,
      "live": 2984,
      "m2": 2985,
      "m3": 2986,
      "m5": 2987,
      "m8": 2988,
      "m17": 2989,
      "mark": 2990,
      "midd": 2991,
      "mMy": 2992,
      "mRow": 2993,
      "nc": 2994,
      "nu": 2995,
      "ner": 2996,
      "nth": 2997,
      "nect": 2998,
      "null": 2999,
      "nThe": 3000,
      "nches": 3001,
      "ntinystories": 3002,
      "nAdd": 3003,
      "nDe": 3004,
      "nlp": 3005,
      "ou": 3006,
      "off": 3007,
      "okie": 3008,
      "pb": 3009,
      "pu": 3010,
      "ple": 3011,
      "por": 3012,
      "per": 3013,
      "page": 3014,
      "pur": 3015,
      "plete": 3016,
      "prefer": 3017,
      "q0": 3018,
      "rat": 3019,
      "s3": 3020,
      "s5": 3021,
      "su": 3022,
      "s12": 3023,
      "site": 3024,
      "smd": 3025,
      "sit": 3026,
      "sions": 3027,
      "sup": 3028,
      "sign": 3029,
      "side": 3030,
      "sdk": 3031,
      "tot": 3032,
      "tar": 3033,
      "ties": 3034,
      "top": 3035,
      "tch": 3036,
      "tting": 3037,
      "ula": 3038,
      "ude": 3039,
      "udi": 3040,
      "ument": 3041,
      "v3": 3042,
      "v5": 3043,
      "vid": 3044,
      "v20": 3045,
      "v11": 3046,
      "v4a": 3047,
      "vis": 3048,
      "v2H": 3049,
      "voc": 3050,
      "vXo": 3051,
      "viron": 3052,
      "wer": 3053,
      "with": 3054,
      "yer": 3055,
      "ymo": 3056,
      "year": 3057,
      "ync": 3058,
      "you": 3059,
      "zpe": 3060,
      "zM5": 3061,
      "zM24": 3062,
      "}\"></": 3063,
      "},{&": 3064,
      "});": 3065,
      "}));": 3066,
      "}),": 3067,
      "=\"@": 3068,
      "19h": 3069,
      "1920": 3070,
      "19a1": 3071,
      "19Zm0": 3072,
      "19a3": 3073,
      "quest": 3074,
      "ote": 3075,
      "tes": 3076,
      "197m0": 3077,
      "197ZM": 3078,
      "197Zm": 3079,
      "197zm": 3080,
      "197V7": 3081,
      "197M6": 3082,
      "197V8": 3083,
      "005": 3084,
      "0000": 3085,
      "005a": 3086,
      "009a": 3087,
      "001h": 3088,
      "00542": 3089,
      "00845": 3090,
      "last": 3091,
      "int": 3092,
      "info": 3093,
      "into": 3094,
      "incl": 3095,
      "inside": 3096,
      "ats": 3097,
      "enge": 3098,
      "enterprise": 3099,
      "environ": 3100,
      "13193": 3101,
      "134a": 3102,
      "132h": 3103,
      "132V": 3104,
      "133h": 3105,
      "13836": 3106,
      "137C0": 3107,
      "lerat": 3108,
      "orig": 3109,
      "ored": 3110,
      "sshGit": 3111,
      "ssorig": 3112,
      "122": 3113,
      "123": 3114,
      "12a1": 3115,
      "1282": 3116,
      "123C": 3117,
      "12a5": 3118,
      "12c2": 3119,
      "12405": 3120,
      "12H5": 3121,
      "12a12": 3122,
      "12S22": 3123,
      "12s12": 3124,
      "classList": 3125,
      "erCo": 3126,
      "erset": 3127,
      "\"><!--": 3128,
      "raw": 3129,
      "rame": 3130,
      "only": 3131,
      "onical": 3132,
      "onymo": 3133,
      "142": 3134,
      "147": 3135,
      "14m": 3136,
      "1453": 3137,
      "14zm0": 3138,
      "14625": 3139,
      "14e8": 3140,
      "14579": 3141,
      "14A14": 3142,
      "14d5a": 3143,
      "14l10": 3144,
      "103": 3145,
      "105": 3146,
      "10a": 3147,
      "10s": 3148,
      "10z": 3149,
      "1055": 3150,
      "1044": 3151,
      "102a": 3152,
      "10H6": 3153,
      "102C16": 3154,
      "102v4": 3155,
      "10436": 3156,
      "10S6": 3157,
      "arset": 3158,
      "ivate": 3159,
      "1549": 3160,
      "152h": 3161,
      "152V": 3162,
      "15zm": 3163,
      "152v": 3164,
      "15L8": 3165,
      "15249": 3166,
      "15V24h": 3167,
      "15a6f": 3168,
      "rev": 3169,
      "rever": 3170,
      "resource": 3171,
      "recently": 3172,
      "retch": 3173,
      "request": 3174,
      "434": 3175,
      "437": 3176,
      "43c": 3177,
      "43l": 3178,
      "432h": 3179,
      "43674": 3180,
      "434c": 3181,
      "162": 3182,
      "166": 3183,
      "168": 3184,
      "16a": 3185,
      "16c": 3186,
      "1688": 3187,
      "162a": 3188,
      "16s0": 3189,
      "16S10": 3190,
      "16s5": 3191,
      "16v20": 3192,
      "paths": 3193,
      "178": 3194,
      "17l": 3195,
      "179a": 3196,
      "17a3": 3197,
      "174h": 3198,
      "17L8": 3199,
      "17v7": 3200,
      "17V2h": 3201,
      "17c3": 3202,
      "anch": 3203,
      "anonymo": 3204,
      "186": 3205,
      "18a": 3206,
      "1826": 3207,
      "18a2": 3208,
      "182h": 3209,
      "18c0": 3210,
      "189h": 3211,
      "18233": 3212,
      "18211": 3213,
      "189v": 3214,
      "18L13": 3215,
      "18zM24": 3216,
      "99ZM2": 3217,
      "99112": 3218,
      "281": 3219,
      "285": 3220,
      "28M": 3221,
      "2868": 3222,
      "28Zm": 3223,
      "287C": 3224,
      "2851": 3225,
      "28H8": 3226,
      "28573": 3227,
      "286h": 3228,
      "28h2": 3229,
      "2814d5a": 3230,
      "251": 3231,
      "2537": 3232,
      "25a8": 3233,
      "252b": 3234,
      "sed": 3235,
      "spli": 3236,
      "spell": 3237,
      "75l": 3238,
      "753a": 3239,
      "75FF": 3240,
      "756C": 3241,
      "206": 3242,
      "209": 3243,
      "2024": 3244,
      "20a1": 3245,
      "24a2": 3246,
      "24v4": 3247,
      "249a": 3248,
      "24C9": 3249,
      "24L16": 3250,
      "24204": 3251,
      "24l2": 3252,
      "24a7": 3253,
      "232": 3254,
      "235": 3255,
      "232L": 3256,
      "231z": 3257,
      "23794": 3258,
      "23A3": 3259,
      "26Z": 3260,
      "26875": 3261,
      "262Z": 3262,
      "267a": 3263,
      "266H": 3264,
      "26a12": 3265,
      "26e90c": 3266,
      "26h28": 3267,
      "gradi": 3268,
      "1364": 3269,
      "136A": 3270,
      "136H": 3271,
      "136z": 3272,
      "136zm": 3273,
      "13614e8": 3274,
      "11a": 3275,
      "11l": 3276,
      "1117a3": 3277,
      "fig": 3278,
      "fit": 3279,
      "fied": 3280,
      "464": 3281,
      "46c": 3282,
      "4645": 3283,
      "4627": 3284,
      "465a": 3285,
      "4657": 3286,
      "46a8": 3287,
      "46c1": 3288,
      "089": 3289,
      "08a": 3290,
      "0878": 3291,
      "082V": 3292,
      "081a": 3293,
      "0873": 3294,
      "08056": 3295,
      "08a8": 3296,
      "082V4": 3297,
      "08403": 3298,
      "391": 3299,
      "392": 3300,
      "393": 3301,
      "39a": 3302,
      "39c": 3303,
      "39cb": 3304,
      "395h": 3305,
      "396h": 3306,
      "395v": 3307,
      "22a": 3308,
      "22v": 3309,
      "22H4": 3310,
      "22ff": 3311,
      "227h": 3312,
      "22V8h": 3313,
      "676": 3314,
      "677": 3315,
      "67c": 3316,
      "67s": 3317,
      "6738": 3318,
      "678a": 3319,
      "67936": 3320,
      "67048": 3321,
      "67783": 3322,
      "67L1": 3323,
      "671f": 3324,
      "67281": 3325,
      "67232": 3326,
      "19376": 3327,
      "193m0": 3328,
      "193ZM": 3329,
      "193V6": 3330,
      "193V10": 3331,
      "06Z": 3332,
      "0637": 3333,
      "06ac": 3334,
      "0686": 3335,
      "06756": 3336,
      "06a7": 3337,
      "06l1": 3338,
      "06756C": 3339,
      "453": 3340,
      "4585": 3341,
      "45082": 3342,
      "45151": 3343,
      "45L28": 3344,
      "45232L": 3345,
      "196m": 3346,
      "196Zm": 3347,
      "196V7": 3348,
      "196V9": 3349,
      "196ZM5": 3350,
      "337": 3351,
      "338": 3352,
      "33M": 3353,
      "3338": 3354,
      "3309": 3355,
      "333h": 3356,
      "334h": 3357,
      "33057": 3358,
      "tpUrl": 3359,
      "align": 3360,
      "95h": 3361,
      "95737": 3362,
      "95H12": 3363,
      "95984": 3364,
      "953c1": 3365,
      "ets": 3366,
      "eticall": 3367,
      "entIds": 3368,
      "21M": 3369,
      "21A11": 3370,
      "294": 3371,
      "2968": 3372,
      "294a": 3373,
      "29802": 3374,
      "29287C": 3375,
      "3537": 3376,
      "3547": 3377,
      "35623": 3378,
      "35a3": 3379,
      "35446": 3380,
      "35014": 3381,
      "3567L1": 3382,
      "\">+": 3383,
      "\">(</": 3384,
      "764": 3385,
      "766": 3386,
      "7634": 3387,
      "765a": 3388,
      "76c0": 3389,
      "763a": 3390,
      "76074": 3391,
      "769L3": 3392,
      "04Z": 3393,
      "0479": 3394,
      "liked": 3395,
      "272": 3396,
      "27h": 3397,
      "27f706": 3398,
      "655": 3399,
      "65c": 3400,
      "65192": 3401,
      "652a": 3402,
      "65H7": 3403,
      "65954": 3404,
      "65391": 3405,
      "verIn": 3406,
      "versions": 3407,
      "073": 3408,
      "078": 3409,
      "07l": 3410,
      "077C": 3411,
      "07H4": 3412,
      "07L3": 3413,
      "07L16": 3414,
      "07497": 3415,
      "07l1": 3416,
      "07d7d": 3417,
      "054": 3418,
      "055": 3419,
      "05c": 3420,
      "344": 3421,
      "3499H8": 3422,
      "34799": 3423,
      "34894": 3424,
      "381": 3425,
      "38c": 3426,
      "3859": 3427,
      "38C6": 3428,
      "383h": 3429,
      "381C": 3430,
      "387h": 3431,
      "38s0": 3432,
      "38s3": 3433,
      "372": 3434,
      "3706": 3435,
      "37075": 3436,
      "37827": 3437,
      "37346": 3438,
      "37677": 3439,
      "48c": 3440,
      "483a": 3441,
      "483C": 3442,
      "48137": 3443,
      "48077": 3444,
      "48c1": 3445,
      "48137C0": 3446,
      "48077C": 3447,
      "983a": 3448,
      "98l2": 3449,
      "98824": 3450,
      "989fa": 3451,
      "553": 3452,
      "555a": 3453,
      "55V6": 3454,
      "552c": 3455,
      "55V11": 3456,
      "55029": 3457,
      "55005": 3458,
      "32Z": 3459,
      "32ZM": 3460,
      "32122": 3461,
      "de7e": 3462,
      "de7d": 3463,
      "acce": 3464,
      "import": 3465,
      "utf": 3466,
      "49c": 3467,
      "49C8": 3468,
      "49d5": 3469,
      "49498": 3470,
      "49676": 3471,
      "8606": 3472,
      "86C17": 3473,
      "86283": 3474,
      "86f9d": 3475,
      "31Zm": 3476,
      "31ZM6": 3477,
      "31ZM14": 3478,
      "that": 3479,
      "theme": 3480,
      "00012": 3481,
      "0903": 3482,
      "093a": 3483,
      "09fd233": 3484,
      "09337": 3485,
      "09483C": 3486,
      "647": 3487,
      "6414": 3488,
      "64a5": 3489,
      "6499H2": 3490,
      "971": 3491,
      "973": 3492,
      "9722": 3493,
      "977h": 3494,
      "97089": 3495,
      "5a3": 3496,
      "5a34": 3497,
      "5a40": 3498,
      "44a": 3499,
      "44c": 3500,
      "4479": 3501,
      "444h": 3502,
      "44c2": 3503,
      "68c": 3504,
      "6858": 3505,
      "68C6": 3506,
      "68808": 3507,
      "68994": 3508,
      "68838": 3509,
      "689V13a1": 3510,
      "68d401": 3511,
      "682851": 3512,
      "cture": 3513,
      "Stripe": 3514,
      "Still": 3515,
      "Studi": 3516,
      "Stats": 3517,
      "abs": 3518,
      "abula": 3519,
      "loss": 3520,
      "loggedIn": 3521,
      "location": 3522,
      "login": 3523,
      "atic": 3524,
      "02c1": 3525,
      "02e57": 3526,
      "36l": 3527,
      "3699": 3528,
      "3634": 3529,
      "36Zm0": 3530,
      "36L8": 3531,
      "36H2": 3532,
      "36641": 3533,
      "dd2cd": 3534,
      "foun": 3535,
      "47c": 3536,
      "47355": 3537,
      "47h3": 3538,
      "47332": 3539,
      "47a46": 3540,
      "47186": 3541,
      "trait": 3542,
      "77Z": 3543,
      "778a": 3544,
      "77814": 3545,
      "77253": 3546,
      "771Z": 3547,
      "773f": 3548,
      "77294": 3549,
      "77372": 3550,
      "77971": 3551,
      "server": 3552,
      "94998": 3553,
      "adRe": 3554,
      "ago": 3555,
      "viewport": 3556,
      "=\"/\"><": 3557,
      "custom": 3558,
      "66103": 3559,
      "58a": 3560,
      "588a": 3561,
      "58V4": 3562,
      "58C0": 3563,
      "58L6": 3564,
      "58v8": 3565,
      "58A5": 3566,
      "58251": 3567,
      "781": 3568,
      "78a": 3569,
      "78875": 3570,
      "78248": 3571,
      "78l11": 3572,
      "7875FF": 3573,
      "78055": 3574,
      "87a": 3575,
      "87c0": 3576,
      "87025": 3577,
      "87344": 3578,
      "small": 3579,
      "192Zm": 3580,
      "192v4": 3581,
      "192zm": 3582,
      "192V9": 3583,
      "82s": 3584,
      "82L16": 3585,
      "82101": 3586,
      "82s2": 3587,
      "datasetsSer": 3588,
      "itor": 3589,
      "ital": 3590,
      "ition": 3591,
      "ribute": 3592,
      "30af": 3593,
      "30zM5": 3594,
      "ateElement": 3595,
      "precon": 3596,
      "preload": 3597,
      "context": 3598,
      "ists": 3599,
      "isMo": 3600,
      "isLi": 3601,
      "isUser": 3602,
      "isBen": 3603,
      "isLo": 3604,
      "isMac": 3605,
      "isWide": 3606,
      "isZh": 3607,
      "83a": 3608,
      "83V7": 3609,
      "83A2": 3610,
      "83h2": 3611,
      "83v5": 3612,
      "event": 3613,
      "scheme": 3614,
      "562h": 3615,
      "69c": 3616,
      "69c2": 3617,
      "69102C16": 3618,
      "6915L8": 3619,
      "69166": 3620,
      "79213": 3621,
      "79169": 3622,
      "79065": 3623,
      "ptch": 3624,
      "still": 3625,
      "store": 3626,
      "stored": 3627,
      "stretch": 3628,
      "884": 3629,
      "884a": 3630,
      "88209": 3631,
      "cookie": 3632,
      "03c": 3633,
      "03132": 3634,
      "03393": 3635,
      "42196": 3636,
      "42141": 3637,
      "57h": 3638,
      "57l": 3639,
      "574a": 3640,
      "93s": 3641,
      "93Zm": 3642,
      "93L6": 3643,
      "93dc": 3644,
      "93s2": 3645,
      "93178": 3646,
      "93766": 3647,
      "a2a8": 3648,
      "a2e2c": 3649,
      "who": 3650,
      "aces": 3651,
      "scribed": 3652,
      "0117": 3653,
      "01a1": 3654,
      "01176": 3655,
      "2h7a1": 3656,
      "2h20a2": 3657,
      "2h6z": 3658,
      "2h8v2h": 3659,
      "tag_o": 3660,
      "03909": 3661,
      "859": 3662,
      "859a": 3663,
      "unt": 3664,
      "uniqu": 3665,
      "unks": 3666,
      "50093": 3667,
      "50054": 3668,
      "63Z": 3669,
      "63c": 3670,
      "6307": 3671,
      "63Zm": 3672,
      "63162": 3673,
      "71A": 3674,
      "71s": 3675,
      "71ce": 3676,
      "71s9": 3677,
      "8908": 3678,
      "892h": 3679,
      "89654": 3680,
      "89666": 3681,
      "92262": 3682,
      "92123C": 3683,
      "92262Z": 3684,
      "92764": 3685,
      "cked": 3686,
      "541a": 3687,
      "100px": 3688,
      "100dv": 3689,
      "62a": 3690,
      "62v8": 3691,
      "62f599f": 3692,
      "braries": 3693,
      "branches": 3694,
      "c0671f": 3695,
      "too": 3696,
      "togg": 3697,
      "2V0": 3698,
      "2V8": 3699,
      "2V8h": 3700,
      "2V6zm": 3701,
      "2V10a": 3702,
      "4117": 3703,
      "41C7": 3704,
      "41L17": 3705,
      ";}\"><": 3706,
      ";}}\"><": 3707,
      ";}},{&": 3708,
      "Zm3": 3709,
      "async": 3710,
      "prose": 3711,
      "197v1": 3712,
      "197v2": 3713,
      "197v4": 3714,
      "197v5": 3715,
      "52c0": 3716,
      "72H8": 3717,
      "72252b": 3718,
      "libraries": 3719,
      "3C6": 3720,
      "3Cn": 3721,
      "3C10M": 3722,
      "300e17": 3723,
      "7C9": 3724,
      "fullname": 3725,
      "1a5": 3726,
      "1ae40": 3727,
      "37545": 3728,
      "375C5": 3729,
      "375C6": 3730,
      "375C2": 3731,
      "375V2": 3732,
      "73ZM3": 3733,
      "91C8": 3734,
      "91Zm": 3735,
      "91h1": 3736,
      "132m0": 3737,
      "132Zm": 3738,
      "132v4": 3739,
      "132v2": 3740,
      "1321688": 3741,
      "trained": 3742,
      "59L22": 3743,
      "59a4": 3744,
      "59054": 3745,
      "196v2": 3746,
      "clipbo": 3747,
      "FFC11": 3748,
      "FF323": 3749,
      "FF7F": 3750,
      "poSet": 3751,
      "point": 3752,
      "short": 3753,
      "lable": 3754,
      "argument": 3755,
      "loads": 3756,
      "6C4": 3757,
      "914C3": 3758,
      "914A1": 3759,
      "914Zm3": 3760,
      "\\/\",\"": 3761,
      "\\/\";": 3762,
      "2H8a2": 3763,
      "2HZOe": 3764,
      "2H20a1": 3765,
      "a51b": 3766,
      "12507": 3767,
      ";:[],&": 3768,
      "00039Z": 3769,
      "2a7": 3770,
      "2a10": 3771,
      "625C5": 3772,
      "625C3": 3773,
      "edit": 3774,
      "edge": 3775,
      "huggingface_logo": 3776,
      "complete": 3777,
      "1147C0": 3778,
      "1147C9": 3779,
      "42469": 3780,
      "667a": 3781,
      "667c": 3782,
      "667s": 3783,
      "667a1": 3784,
      "96Z": 3785,
      "96h": 3786,
      "96176": 3787,
      "96L5": 3788,
      "chall": 3789,
      "chmark": 3790,
      "charset": 3791,
      "chunks": 3792,
      "136v3": 3793,
      "193v2": 3794,
      "193v6": 3795,
      "3Aen": 3796,
      "3Adatasets": 3797,
      "3Aparquet": 3798,
      "3A1M": 3799,
      "3Adask": 3800,
      "3Apolars": 3801,
      "3c3": 3802,
      "3c34799": 3803,
      "414a5": 3804,
      "414L12": 3805,
      "414l5": 3806,
      "875a": 3807,
      "075a": 3808,
      "075V4": 3809,
      "2v18": 3810,
      "2v2h3": 3811,
      "2v9h": 3812,
      "2v20a2": 3813,
      "2v24a2": 3814,
      "27514": 3815,
      "506V13a1": 3816,
      "61Z": 3817,
      "71842": 3818,
      "775C12": 3819,
      "775V11": 3820,
      "775H11": 3821,
      "81c0": 3822,
      "81C2": 3823,
      "90894": 3824,
      "dir": 3825,
      "dified": 3826,
      "parentIds": 3827,
      "ary_lar": 3828,
      "55129C5": 3829,
      "55129C7": 3830,
      "55129C2": 3831,
      "0945C8": 3832,
      "0945C5": 3833,
      "0945C2": 3834,
      "0945ZM1": 3835,
      "autocomplete": 3836,
      "42446C1": 3837,
      "42446C7": 3838,
      "42446C4": 3839,
      "0v12a1": 3840,
      "225h": 3841,
      "22568": 3842,
      "827h": 3843,
      "9a9": 3844,
      "url": 3845,
      "9999ZM1": 3846,
      "9999ZM2": 3847,
      "22118L13": 3848,
      "066z": 3849,
      "0a38": 3850,
      "043H15": 3851,
      "016a2": 3852,
      "016v4": 3853,
      "0160ff": 3854,
      "1M7": 3855,
      "117h": 3856,
      "428h": 3857,
      "82551": 3858,
      "825H6": 3859,
      "825ZM14": 3860,
      "839a": 3861,
      "855h": 3862,
      "85578": 3863,
      "85542": 3864,
      "85552": 3865,
      "85549C8": 3866,
      "Coher": 3867,
      "Thu": 3868,
      "This": 3869,
      "cols": 3870,
      "dalities": 3871,
      "private": 3872,
      "13928": 3873,
      "658h": 3874,
      "6499C1": 3875,
      "datasetViewer": 3876,
      "--></": 3877,
      "2c5": 3878,
      "2c08056": 3879,
      "3h6": 3880,
      "408Z": 3881,
      "408a": 3882,
      "408v4": 3883,
      "50df": 3884,
      "526cf": 3885,
      "52681C2": 3886,
      "9d8f": 3887,
      "e8106": 3888,
      "e8bcb": 3889,
      "fff": 3890,
      "ff3dd": 3891,
      "generated": 3892,
      "mmary_lar": 3893,
      "noborder": 3894,
      "userAg": 3895,
      "177a": 3896,
      "082l": 3897,
      "48017": 3898,
      "97efc1a": 3899,
      "contribute": 3900,
      "88125C1": 3901,
      "88125C6": 3902,
      "88125C4": 3903,
      "formats": 3904,
      "modalities": 3905,
      "avatarUrl": 3906,
      "CopyBut": 3907,
      "02673C": 3908,
      "02673ZM3": 3909,
      "026e8106": 3910,
      "04609": 3911,
      "312a": 3912,
      "475Z": 3913,
      "475a": 3914,
      "475C1": 3915,
      "475H2": 3916,
      "49514": 3917,
      "5V8z": 3918,
      "53318": 3919,
      "53598": 3920,
      "534a": 3921,
      "53417": 3922,
      "53498": 3923,
      "6l10": 3924,
      "624c0": 3925,
      "62499H8": 3926,
      "62499ZM2": 3927,
      "713a": 3928,
      "726a": 3929,
      "9c1": 3930,
      "9c64": 3931,
      "9c86f9d": 3932,
      "H6v": 3933,
      "Modified": 3934,
      "Modalities": 3935,
      "Proper": 3936,
      "Provid": 3937,
      "cf1c": 3938,
      "canRe": 3939,
      "canonical": 3940,
      "hf_defer": 3941,
      "tabindex": 3942,
      "10453": 3943,
      "remote": 3944,
      "085h": 3945,
      "45828": 3946,
      "333s9": 3947,
      "87377Z": 3948,
      "87377L6": 3949,
      "ThemeMon": 3950,
      "contains": 3951,
      "containing": 3952,
      "documentElement": 3953,
      "0l4": 3954,
      "425a": 3955,
      "425c0": 3956,
      "5e22ff": 3957,
      "5e02e57": 3958,
      "542H15": 3959,
      "6c5": 3960,
      "648a": 3961,
      "64804": 3962,
      "69742": 3963,
      "719a": 3964,
      "71928": 3965,
      "714c": 3966,
      "714h": 3967,
      "81417": 3968,
      "814a1": 3969,
      "814Zm": 3970,
      "925a": 3971,
      "License": 3972,
      "Like": 3973,
      "Libraries": 3974,
      "be61a": 3975,
      "bezpe": 3976,
      "crossorig": 3977,
      "cardData": 3978,
      "cardEx": 3979,
      "d5bc0": 3980,
      "doctype": 3981,
      "docSearch": 3982,
      "mats": 3983,
      "matches": 3984,
      "initial": 3985,
      "135v2": 3986,
      "14615": 3987,
      "153d5bc0": 3988,
      "repoType": 3989,
      "reposit": 3990,
      "25309": 3991,
      "061c": 3992,
      "061q0": 3993,
      "07708": 3994,
      "heads": 3995,
      "09359C8": 3996,
      "09359C2": 3997,
      "68754": 3998,
      "6875H2": 3999,
      "logoDev": 4000,
      "78473H8": 4001,
      "78473ZM6": 4002,
      "01afea": 4003,
      "2h3V7h": 4004,
      "apiUrl": 4005,
      "apiKey": 4006,
      "commits": 4007,
      "623142Z": 4008,
      "623142L": 4009,
      "623142C4": 4010,
      "623142V0": 4011,
      "90641C1": 4012,
      "90641C7": 4013,
      "discussionsDisabled": 4014,
      "discussionsSort": 4015,
      "discussionsStats": 4016,
      "07618": 4017,
      "034L1": 4018,
      "0382814d5a": 4019,
      "035l1": 4020,
      "11949": 4021,
      "113a": 4022,
      "2L14": 4023,
      "24369": 4024,
      "21726": 4025,
      "29913": 4026,
      "323h": 4027,
      "30898": 4028,
      "3ZM7": 4029,
      "4l5": 4030,
      "4l15": 4031,
      "52857": 4032,
      "50832": 4033,
      "522h": 4034,
      "5ZM7": 4035,
      "5ZM17": 4036,
      "5ZM24": 4037,
      "646a": 4038,
      "646ca": 4039,
      "64607L16": 4040,
      "639a": 4041,
      "606a": 4042,
      "605a": 4043,
      "63475": 4044,
      "71597": 4045,
      "717a": 4046,
      "725h": 4047,
      "725V14": 4048,
      "707z": 4049,
      "84316": 4050,
      "83531": 4051,
      "84835": 4052,
      "848v6": 4053,
      "886a": 4054,
      "93928": 4055,
      "904a": 4056,
      "904h": 4057,
      "904V16": 4058,
      "HuggingFace": 4059,
      "Region": 4060,
      "bsite": 4061,
      "createElement": 4062,
      "check": 4063,
      "closed": 4064,
      "ge_image": 4065,
      "ghost": 4066,
      "picture": 4067,
      "pricing": 4068,
      "swaf": 4069,
      "subType": 4070,
      "subject": 4071,
      "subpaths": 4072,
      "upDisabled": 4073,
      "uploads": 4074,
      "website": 4075,
      "19v1": 4076,
      "endCh": 4077,
      "endpoint": 4078,
      "14449": 4079,
      "14a9": 4080,
      "14c27f706": 4081,
      "10l3": 4082,
      "10l10": 4083,
      "llowing": 4084,
      "18834": 4085,
      "244C1": 4086,
      "23674C0": 4087,
      "ficiently": 4088,
      "083L3": 4089,
      "08202ZM8": 4090,
      "08202V8": 4091,
      "08202L14": 4092,
      "08099C4": 4093,
      "45807H28": 4094,
      "196V8": 4095,
      "196V12": 4096,
      "196V16": 4097,
      "293l": 4098,
      "293L12": 4099,
      "35841C7": 4100,
      "76812": 4101,
      "04818": 4102,
      "07761": 4103,
      "37499H1": 4104,
      "37499H3": 4105,
      "37499H6": 4106,
      "98086C4": 4107,
      "44466H1": 4108,
      "585v": 4109,
      "53109H8": 4110,
      "30221Z": 4111,
      "30221C14": 4112,
      "30221C29": 4113,
      "isHfAd": 4114,
      "83049C4": 4115,
      "56326C7": 4116,
      "8537H28": 4117,
      "V4h8v6": 4118,
      "authors": 4119,
      "spacesApi": 4120,
      "spacesIf": 4121,
      "downloadsAll": 4122,
      "5485261": 4123,
      "03749C13": 4124,
      "DatasetHeader": 4125,
      "17749C5": 4126,
      "87377C2": 4127,
      "87377C9": 4128,
      "87377C10": 4129,
      "6978Z": 4130,
      "6978C14": 4131,
      "6978C29": 4132,
      "84417H15": 4133,
      "14635H15": 4134,
      "commitLast": 4135,
      "92699C4": 4136,
      "ViewerHeader": 4137,
      "ViewerBlo": 4138,
      "paperTitle": 4139,
      "intelligently": 4140,
      "15588H28": 4141,
      "39444C1": 4142,
      "(\"\\/": 4143,
      "('(": 4144,
      "));</": 4145,
      "025h": 4146,
      "34686": 4147,
      "32988": 4148,
      "30547": 4149,
      "4bdd": 4150,
      "4bff3dd": 4151,
      "405c0": 4152,
      "505h": 4153,
      "505q": 4154,
      "538l": 4155,
      "538l2": 4156,
      "57938": 4157,
      "6H18zM24": 4158,
      "619C2": 4159,
      "61734": 4160,
      "6493C6": 4161,
      "6493ZM7": 4162,
      "694h": 4163,
      "794h": 4164,
      "8f9c64": 4165,
      "816c0": 4166,
      "816857": 4167,
      "80365": 4168,
      "803c0": 4169,
      "927h": 4170,
      "92709": 4171,
      "964h": 4172,
      "ByUser": 4173,
      "Bytes": 4174,
      "Blocked": 4175,
      "Device": 4176,
      "MainHeader": 4177,
      "SOdDp": 4178,
      "These": 4179,
      "awswaf": 4180,
      "bd5w": 4181,
      "bd5f20": 4182,
      "bcbe8bcb": 4183,
      "captch": 4184,
      "datetime": 4185,
      "hash": 4186,
      "hasBlocked": 4187,
      "hubCon": 4188,
      "kedByUser": 4189,
      "pk_UHS": 4190,
      "pk_live": 4191,
      "system": 4192,
      "synth": 4193,
      "tings": 4194,
      "ures": 4195,
      "used": 4196,
      "},\"": 4197,
      "}}\">": 4198,
      "00002C14": 4199,
      "00002C29": 4200,
      "13192C3": 4201,
      "12T19": 4202,
      "12T13": 4203,
      "435A": 4204,
      "435c": 4205,
      "1625V2": 4206,
      "17096": 4207,
      "18125V9": 4208,
      "99fbcbe8bcb": 4209,
      "28928C14": 4210,
      "28928L5": 4211,
      "75a34": 4212,
      "24901afea": 4213,
      "086V4": 4214,
      "088c": 4215,
      "393aaa1": 4216,
      "952m8": 4217,
      "29c9": 4218,
      "35262C2": 4219,
      "35262ZM3": 4220,
      "04476C5": 4221,
      "04476ZM6": 4222,
      "likes": 4223,
      "07L9": 4224,
      "device": 4225,
      "activeTab": 4226,
      "86808C6": 4227,
      "referred": 4228,
      "following": 4229,
      "followerCo": 4230,
      "78Zm15": 4231,
      "53158C6": 4232,
      "53158C3": 4233,
      "convert": 4234,
      "converts": 4235,
      "scale": 4236,
      "scalable": 4237,
      "5625H4": 4238,
      "stripePublic": 4239,
      "app_id": 4240,
      "appendCh": 4241,
      "moonHt": 4242,
      "moonSh": 4243,
      "00602C1": 4244,
      "00602C11": 4245,
      "placehol": 4246,
      "46842C6": 4247,
      "46842C3": 4248,
      "0v2h3V4h": 4249,
      "0v2h3V7h": 4250,
      "22536C6": 4251,
      "22536ZM4": 4252,
      "03748H8": 4253,
      "03748H6": 4254,
      "11705C6": 4255,
      "48027C7": 4256,
      "48027ZM8": 4257,
      "62499H3": 4258,
      "62499H6": 4259,
      "52499Z": 4260,
      "52499C7": 4261,
      "71489C3": 4262,
      "71489ZM5": 4263,
      "matchMed": 4264,
      "validation": 4265,
      "97273C0": 4266,
      "97273C9": 4267,
      "60556C8": 4268,
      "84373Z": 4269,
      "84373H7": 4270,
      "LastCommit": 4271,
      "createdAt": 4272,
      "21853C3": 4273,
      "21853ZM3": 4274,
      "87776C8": 4275,
      "87776ZM6": 4276,
      "88295C3": 4277,
      "Languages": 4278,
      "PublicUrl": 4279,
      "stemThemeMon": 4280,
      "38377C8": 4281,
      "HTML_TAG_EN": 4282,
      "HTML_TAG_STA": 4283,
      "\"].": 4284,
      "\"}};": 4285,
      "([\"": 4286,
      ")?.[": 4287,
      "+)/)?.[": 4288,
      "...\"": 4289,
      "04557": 4290,
      "03024": 4291,
      "1m10": 4292,
      "1161": 4293,
      "1V6a1": 4294,
      "1Layer": 4295,
      "1V3a1": 4296,
      "1v6a1": 4297,
      "2da2a8": 4298,
      "2tdj": 4299,
      "2141709": 4300,
      "2FFmMy": 4301,
      "21964L15": 4302,
      "3v2h3V7h": 4303,
      "3zM6": 4304,
      "3187": 4305,
      "3288": 4306,
      "32218": 4307,
      "36731": 4308,
      "3063": 4309,
      "30002C16": 4310,
      "49991C8": 4311,
      "448h": 4312,
      "4H4v4a": 4313,
      "5L24": 4314,
      "514A1": 4315,
      "52552": 4316,
      "521a": 4317,
      "507a": 4318,
      "586L7": 4319,
      "597h": 4320,
      "577h": 4321,
      "54a8": 4322,
      "59224": 4323,
      "6e62f599f": 4324,
      "67527": 4325,
      "62068": 4326,
      "6279": 4327,
      "638h": 4328,
      "68681": 4329,
      "66839": 4330,
      "63664": 4331,
      "697ee27": 4332,
      "6v2h2v20a2": 4333,
      "7b52": 4334,
      "7jbd5w": 4335,
      "7l3": 4336,
      "7zM18": 4337,
      "72038": 4338,
      "704c0": 4339,
      "74422": 4340,
      "7dd72252b": 4341,
      "742a": 4342,
      "72h2": 4343,
      "8d39cb": 4344,
      "813a2": 4345,
      "81868": 4346,
      "898a1": 4347,
      "80962": 4348,
      "887L8": 4349,
      "84241": 4350,
      "919a": 4351,
      "91268C6": 4352,
      "911c0": 4353,
      "91935": 4354,
      "93566": 4355,
      "968v": 4356,
      "96907L9": 4357,
      "963C5": 4358,
      "9125H8": 4359,
      ";🇺🇸": 4360,
      "ArXiv": 4361,
      "BCvXo": 4362,
      "Banner": 4363,
      "Croissant": 4364,
      "Domain": 4365,
      "Details": 4366,
      "Docs": 4367,
      "EF1161": 4368,
      "Eldan": 4369,
      "Enterprise": 4370,
      "FXBCvXo": 4371,
      "Following": 4372,
      "Formats": 4373,
      "FC6E6B": 4374,
      "GMT": 4375,
      "Generation": 4376,
      "J6gPCAA": 4377,
      "May": 4378,
      "M00J6gPCAA": 4379,
      "Oids": 4380,
      "Pricing": 4381,
      "Root": 4382,
      "Ronen": 4383,
      "RnaSOdDp": 4384,
      "Spaces": 4385,
      "SystemThemeMon": 4386,
      "Sans": 4387,
      "Small": 4388,
      "Speak": 4389,
      "SSOBanner": 4390,
      "SHA256": 4391,
      "Tasks": 4392,
      "[]).": 4393,
      "__hf_defer": 4394,
      "_x2tdj": 4395,
      "_all_data": 4396,
      "aa393aaa1": 4397,
      "assets": 4398,
      "a24646ca": 4399,
      "a64b": 4400,
      "aApiKey": 4401,
      "btn": 4402,
      "c80f725": 4403,
      "c5cf5e22ff": 4404,
      "d152c08056": 4405,
      "d40e5dc": 4406,
      "efficiently": 4407,
      "extra": 4408,
      "ece5e02e57": 4409,
      "e118e7": 4410,
      "e2a1497efc1a": 4411,
      "f54c09fd233": 4412,
      "features": 4413,
      "gstatic": 4414,
      "hostname": 4415,
      "history": 4416,
      "javascript": 4417,
      "middle": 4418,
      "mRows": 4419,
      "numRows": 4420,
      "ntinystories_all_data": 4421,
      "nAddition": 4422,
      "nDescribed": 4423,
      "push": 4424,
      "portrait": 4425,
      "purple": 4426,
      "prefers": 4427,
      "summary_lar": 4428,
      "superset": 4429,
      "signupDisabled": 4430,
      "total": 4431,
      "udes": 4432,
      "visible": 4433,
      "v2H2z": 4434,
      "vocabula": 4435,
      "were": 4436,
      "years": 4437,
      "1920d40e5dc": 4438,
      "197ZM17": 4439,
      "197V7a": 4440,
      "00002Z": 4441,
      "lastModified": 4442,
      "includes": 4443,
      "environment": 4444,
      "132V7": 4445,
      "lerating": 4446,
      "sshGitUrl": 4447,
      "1282C8": 4448,
      "rameDomain": 4449,
      "145326e90c": 4450,
      "1055962": 4451,
      "10H6z": 4452,
      "152h5": 4453,
      "152V3": 4454,
      "152v6": 4455,
      "15249C7": 4456,
      "15V24h6": 4457,
      "15a6f9c86f9d": 4458,
      "reverse": 4459,
      "resources": 4460,
      "requestId": 4461,
      "43674C7": 4462,
      "16v20z": 4463,
      "anchor": 4464,
      "anonymous": 4465,
      "18263": 4466,
      "189v1": 4467,
      "28682": 4468,
      "28Zm4": 4469,
      "28H8V4h8v6": 4470,
      "25378": 4471,
      "splitting": 4472,
      "spellcheck": 4473,
      "24v4H6v": 4474,
      "26875V6": 4475,
      "266H3": 4476,
      "26h28v2H2z": 4477,
      "gradient": 4478,
      "13614e830af": 4479,
      "1117a368d401": 4480,
      "464574422": 4481,
      "46572": 4482,
      "08789": 4483,
      "082V2": 4484,
      "08403C2": 4485,
      "22V8h16v20z": 4486,
      "67389": 4487,
      "06373": 4488,
      "06acb0d": 4489,
      "06863": 4490,
      "06756L6": 4491,
      "06756C1": 4492,
      "45232L13": 4493,
      "33382": 4494,
      "333h1": 4495,
      "etically": 4496,
      "29287C4": 4497,
      "35379d8f": 4498,
      "3547L11": 4499,
      "65192C2": 4500,
      "verInfo": 4501,
      "07d7d1ae40": 4502,
      "381C25": 4503,
      "37346026e8106": 4504,
      "48137L5": 4505,
      "48077ZM1": 4506,
      "48077C3": 4507,
      "989fa1117a368d401": 4508,
      "32ZM34": 4509,
      "de7e35379d8f": 4510,
      "de7d8f9c64": 4511,
      "accelerating": 4512,
      "49d5dd2cd": 4513,
      "31Zm8": 4514,
      "09483C7": 4515,
      "68584": 4516,
      "68994L14": 4517,
      "Studio": 4518,
      "found": 4519,
      "773f3c34799": 4520,
      "94998H4": 4521,
      "adRepoSet": 4522,
      "customProper": 4523,
      "78875C3": 4524,
      "78248C5": 4525,
      "datasetsServerInfo": 4526,
      "preconnect": 4527,
      "isMod": 4528,
      "isLikedByUser": 4529,
      "isUserFollowing": 4530,
      "isBenchmark": 4531,
      "isLoggedIn": 4532,
      "83h2l": 4533,
      "stores": 4534,
      "a2e2cb": 4535,
      "tag_objs": 4536,
      "unique": 4537,
      "71ceaa393aaa1": 4538,
      "92262L12": 4539,
      "92123C1": 4540,
      "100dvw": 4541,
      "c0671fa2e2cb": 4542,
      "toggle": 4543,
      "2V8h2V6zm": 4544,
      "300e17d152c08056": 4545,
      "1321688464574422": 4546,
      "clipboard": 4547,
      "FFC11E": 4548,
      "FF323D": 4549,
      "FF7F41": 4550,
      "arguments": 4551,
      "2HZOeRnaSOdDp": 4552,
      "a51b2da2a8": 4553,
      "challenge": 4554,
      "2v2h3V4h": 4555,
      "2v9h7v": 4556,
      "043H15v11": 4557,
      "0160ff14c27f706": 4558,
      "Coherent": 4559,
      "datasetViewerPublicUrl": 4560,
      "50df6e62f599f": 4561,
      "526cf06acb0d": 4562,
      "userAgent": 4563,
      "CopyButton": 4564,
      "02673C4": 4565,
      "Provider": 4566,
      "cf1c8d39cb": 4567,
      "canReadRepoSet": 4568,
      "be61a99fbcbe8bcb": 4569,
      "bezpeM00J6gPCAA": 4570,
      "crossorigin": 4571,
      "cardExists": 4572,
      "docSearchKey": 4573,
      "153d5bc024901afea": 4574,
      "repository": 4575,
      "623142L0": 4576,
      "discussionsSorting": 4577,
      "0382814d5a773f3c34799": 4578,
      "isHfAdmin": 4579,
      "spacesApiUrl": 4580,
      "spacesIframeDomain": 4581,
      "downloadsAllTime": 4582,
      "ViewerBlobPage": 4583,
      "4bff3dd07d7d1ae40": 4584,
      "DeviceProvider": 4585,
      "bd5f2066": 4586,
      "captchaApiKey": 4587,
      "hasBlockedOids": 4588,
      "hubConfig": 4589,
      "pk_UHS2HZOeRnaSOdDp": 4590,
      "pk_live_x2tdj": 4591,
      "synthetically": 4592,
      "followerCount": 4593,
      "stripePublicKey": 4594,
      "appendChild": 4595,
      "moonHttpUrl": 4596,
      "moonSha": 4597,
      "placeholder": 4598,
      "matchMedia": 4599,
      "HTML_TAG_END": 4600,
      "HTML_TAG_START": 4601,
      "2FFmMybezpeM00J6gPCAA": 4602,
      "4H4v4a2": 4603,
      "697ee271": 4604,
      "7dd72252b989fa1117a368d401": 4605,
      "FXBCvXo2FFmMybezpeM00J6gPCAA": 4606,
      "SystemThemeMonitor": 4607,
      "__hf_deferred": 4608,
      "a24646ca3859": 4609,
      "c80f725de7d8f9c64": 4610,
      "c5cf5e22ff13614e830af": 4611,
      "ece5e02e57300e17d152c08056": 4612,
      "e2a1497efc1aa51b2da2a8": 4613,
      "f54c09fd23315a6f9c86f9d": 4614,
      "nAdditional": 4615,
      "summary_large_image": 4616,
      "vocabulary": 4617,
      "145326e90c4bff3dd07d7d1ae40": 4618,
      "28H8V4h8v6a2": 4619,
      "37346026e81060382814d5a773f3c34799": 4620,
      "de7e35379d8f7b52": 4621,
      "49d5dd2cd153d5bc024901afea": 4622,
      "customProperties": 4623,
      "71ceaa393aaa11920d40e5dc": 4624,
      "2V8h2V6zm4": 4625,
      "0160ff14c27f70650df6e62f599f": 4626,
      "cf1c8d39cb6": 4627,
      "canReadRepoSettings": 4628,
      "be61a99fbcbe8bcb7dd72252b989fa1117a368d401": 4629,
      "pk_UHS2HZOeRnaSOdDp7jbd5w": 4630,
      "pk_live_x2tdjFXBCvXo2FFmMybezpeM00J6gPCAA": 4631,
      "c5cf5e22ff13614e830afbe61a99fbcbe8bcb7dd72252b989fa1117a368d401": 4632,
      "ece5e02e57300e17d152c08056145326e90c4bff3dd07d7d1ae40": 4633,
      "e2a1497efc1aa51b2da2a849d5dd2cd153d5bc024901afea": 4634,
      "f54c09fd23315a6f9c86f9dc80f725de7d8f9c64": 4635,
      "37346026e81060382814d5a773f3c34799e118e7": 4636,
      "0160ff14c27f70650df6e62f599fc0671fa2e2cb": 4637,
      "pk_live_x2tdjFXBCvXo2FFmMybezpeM00J6gPCAAc": 4638,
      "c5cf5e22ff13614e830afbe61a99fbcbe8bcb7dd72252b989fa1117a368d401f": 4639,
      "ece5e02e57300e17d152c08056145326e90c4bff3dd07d7d1ae40cf1c8d39cb6": 4640,
      "e2a1497efc1aa51b2da2a849d5dd2cd153d5bc024901afeade7e35379d8f7b52": 4641
    },
    "merges": [
      [
        "=",
        "\""
      ],
      [
        "1",
        "9"
      ],
      [
        "-",
        "."
      ],
      [
        "q",
        "u"
      ],
      [
        "o",
        "t"
      ],
      [
        "qu",
        "ot"
      ],
      [
        "t",
        "e"
      ],
      [
        "19",
        "7"
      ],
      [
        ">",
        "<"
      ],
      [
        "0",
        "0"
      ],
      [
        "l",
        "a"
      ],
      [
        "i",
        "n"
      ],
      [
        "a",
        "t"
      ],
      [
        "e",
        "n"
      ],
      [
        "1",
        "3"
      ],
      [
        "l",
        "e"
      ],
      [
        "o",
        "r"
      ],
      [
        "s",
        "s"
      ],
      [
        "1",
        "2"
      ],
      [
        "c",
        "la"
      ],
      [
        "cla",
        "ss"
      ],
      [
        "e",
        "r"
      ],
      [
        "\"",
        "><"
      ],
      [
        "r",
        "a"
      ],
      [
        "o",
        "n"
      ],
      [
        "1",
        "4"
      ],
      [
        "i",
        "d"
      ],
      [
        "1",
        "0"
      ],
      [
        "a",
        "r"
      ],
      [
        "i",
        "v"
      ],
      [
        "x",
        "t"
      ],
      [
        "1",
        "5"
      ],
      [
        "r",
        "e"
      ],
      [
        "4",
        "3"
      ],
      [
        "1",
        "6"
      ],
      [
        "p",
        "at"
      ],
      [
        "pat",
        "h"
      ],
      [
        "1",
        "7"
      ],
      [
        "te",
        "xt"
      ],
      [
        "a",
        "n"
      ],
      [
        "l",
        "l"
      ],
      [
        "1",
        "8"
      ],
      [
        "9",
        "9"
      ],
      [
        "d",
        "iv"
      ],
      [
        "r",
        "o"
      ],
      [
        "2",
        "8"
      ],
      [
        "<",
        "/"
      ],
      [
        "h",
        "t"
      ],
      [
        "2",
        "5"
      ],
      [
        "s",
        "e"
      ],
      [
        "s",
        "p"
      ],
      [
        "7",
        "5"
      ],
      [
        "2",
        "0"
      ],
      [
        ";",
        ":"
      ],
      [
        "w",
        "w"
      ],
      [
        "2",
        "4"
      ],
      [
        "2",
        "3"
      ],
      [
        "2",
        "6"
      ],
      [
        "g",
        "ra"
      ],
      [
        "13",
        "6"
      ],
      [
        "gra",
        "y"
      ],
      [
        "1",
        "1"
      ],
      [
        "f",
        "i"
      ],
      [
        "s",
        "v"
      ],
      [
        "sv",
        "g"
      ],
      [
        ",",
        "&"
      ],
      [
        "4",
        "6"
      ],
      [
        "c",
        "u"
      ],
      [
        "l",
        "in"
      ],
      [
        "i",
        "e"
      ],
      [
        "0",
        "8"
      ],
      [
        "3",
        "9"
      ],
      [
        "le",
        "x"
      ],
      [
        "f",
        "lex"
      ],
      [
        "2",
        "2"
      ],
      [
        "fi",
        "ll"
      ],
      [
        "6",
        "7"
      ],
      [
        "19",
        "3"
      ],
      [
        "0",
        "6"
      ],
      [
        "4",
        "5"
      ],
      [
        "><",
        "/"
      ],
      [
        "19",
        "6"
      ],
      [
        "\"><",
        "/"
      ],
      [
        "m",
        "r"
      ],
      [
        "i",
        "te"
      ],
      [
        "3",
        "3"
      ],
      [
        "t",
        "p"
      ],
      [
        "a",
        "l"
      ],
      [
        "n",
        "s"
      ],
      [
        "ht",
        "tp"
      ],
      [
        "9",
        "5"
      ],
      [
        "m",
        "l"
      ],
      [
        "o",
        "l"
      ],
      [
        "sp",
        "an"
      ],
      [
        "e",
        "t"
      ],
      [
        "te",
        "r"
      ],
      [
        "/",
        "/"
      ],
      [
        ":",
        "//"
      ],
      [
        "e",
        "m"
      ],
      [
        "en",
        "t"
      ],
      [
        "t",
        "y"
      ],
      [
        ";:",
        "&"
      ],
      [
        "2",
        "1"
      ],
      [
        "2",
        "9"
      ],
      [
        "3",
        "5"
      ],
      [
        "d",
        "er"
      ],
      [
        "\"",
        ">"
      ],
      [
        "7",
        "6"
      ],
      [
        "r",
        "u"
      ],
      [
        "0",
        "4"
      ],
      [
        ";",
        ",&"
      ],
      [
        "1",
        "em"
      ],
      [
        "l",
        "i"
      ],
      [
        "2",
        "7"
      ],
      [
        "6",
        "5"
      ],
      [
        "v",
        "er"
      ],
      [
        "at",
        "a"
      ],
      [
        "lin",
        "k"
      ],
      [
        "0",
        "7"
      ],
      [
        "ro",
        "u"
      ],
      [
        "0",
        "5"
      ],
      [
        "3",
        "4"
      ],
      [
        "3",
        "8"
      ],
      [
        "or",
        "g"
      ],
      [
        "M",
        "id"
      ],
      [
        "w",
        "3"
      ],
      [
        "x",
        "ml"
      ],
      [
        "ar",
        "k"
      ],
      [
        "ww",
        "w"
      ],
      [
        "xml",
        "ns"
      ],
      [
        "3",
        "7"
      ],
      [
        "4",
        "8"
      ],
      [
        "9",
        "8"
      ],
      [
        "c",
        "en"
      ],
      [
        "d",
        "ark"
      ],
      [
        "h",
        "e"
      ],
      [
        "o",
        "ver"
      ],
      [
        "ie",
        "s"
      ],
      [
        "5",
        "5"
      ],
      [
        "cu",
        "r"
      ],
      [
        "d",
        "ata"
      ],
      [
        "i",
        "g"
      ],
      [
        "3",
        "2"
      ],
      [
        "x",
        "link"
      ],
      [
        "cen",
        "ter"
      ],
      [
        "d",
        "e"
      ],
      [
        "or",
        "ies"
      ],
      [
        "ol",
        "or"
      ],
      [
        "C",
        "olor"
      ],
      [
        "a",
        "c"
      ],
      [
        "h",
        "over"
      ],
      [
        "i",
        "m"
      ],
      [
        "m",
        "s"
      ],
      [
        "r",
        "ent"
      ],
      [
        "t",
        "s"
      ],
      [
        "u",
        "t"
      ],
      [
        "ite",
        "ms"
      ],
      [
        "cur",
        "rent"
      ],
      [
        "current",
        "Color"
      ],
      [
        "4",
        "9"
      ],
      [
        "8",
        "6"
      ],
      [
        "3",
        "1"
      ],
      [
        "t",
        "h"
      ],
      [
        "00",
        "0"
      ],
      [
        "id",
        "d"
      ],
      [
        "0",
        "9"
      ],
      [
        "h",
        "idd"
      ],
      [
        "hidd",
        "en"
      ],
      [
        "6",
        "4"
      ],
      [
        "9",
        "7"
      ],
      [
        "m",
        "d"
      ],
      [
        "m",
        "e"
      ],
      [
        "5",
        "a"
      ],
      [
        "b",
        "or"
      ],
      [
        "f",
        "al"
      ],
      [
        "m",
        "b"
      ],
      [
        "re",
        "f"
      ],
      [
        "ig",
        "ht"
      ],
      [
        "bor",
        "der"
      ],
      [
        "fal",
        "se"
      ],
      [
        "4",
        "4"
      ],
      [
        "6",
        "8"
      ],
      [
        "c",
        "t"
      ],
      [
        "S",
        "t"
      ],
      [
        "a",
        "b"
      ],
      [
        "e",
        "l"
      ],
      [
        "in",
        "g"
      ],
      [
        "l",
        "o"
      ],
      [
        "at",
        "i"
      ],
      [
        "0",
        "2"
      ],
      [
        "3",
        "6"
      ],
      [
        "in",
        "y"
      ],
      [
        "T",
        "iny"
      ],
      [
        "d",
        "d"
      ],
      [
        "f",
        "o"
      ],
      [
        "t",
        "ru"
      ],
      [
        "St",
        "ories"
      ],
      [
        "Tiny",
        "Stories"
      ],
      [
        "4",
        "7"
      ],
      [
        "h",
        "ref"
      ],
      [
        "ie",
        "w"
      ],
      [
        "data",
        "se"
      ],
      [
        "t",
        "ra"
      ],
      [
        "7",
        "7"
      ],
      [
        "s",
        "er"
      ],
      [
        "4",
        "00"
      ],
      [
        "9",
        "4"
      ],
      [
        "a",
        "d"
      ],
      [
        "a",
        "g"
      ],
      [
        "m",
        "0"
      ],
      [
        "v",
        "iew"
      ],
      [
        "w",
        "id"
      ],
      [
        "=\"",
        "/"
      ],
      [
        "cu",
        "s"
      ],
      [
        "lin",
        "e"
      ],
      [
        "wid",
        "th"
      ],
      [
        "6",
        "6"
      ],
      [
        "g",
        "rou"
      ],
      [
        "o",
        "w"
      ],
      [
        "fo",
        "cus"
      ],
      [
        "grou",
        "p"
      ],
      [
        "5",
        "8"
      ],
      [
        "7",
        "8"
      ],
      [
        "a",
        "1"
      ],
      [
        "i",
        "a"
      ],
      [
        "r",
        "on"
      ],
      [
        "he",
        "ight"
      ],
      [
        "im",
        "g"
      ],
      [
        "tru",
        "e"
      ],
      [
        "8",
        "7"
      ],
      [
        "s",
        "m"
      ],
      [
        "19",
        "2"
      ],
      [
        "8",
        "2"
      ],
      [
        "b",
        "ut"
      ],
      [
        "t",
        "on"
      ],
      [
        "datase",
        "ts"
      ],
      [
        "2",
        "000"
      ],
      [
        "5",
        "3"
      ],
      [
        "B",
        "o"
      ],
      [
        "d",
        "an"
      ],
      [
        "i",
        "t"
      ],
      [
        "m",
        "a"
      ],
      [
        "p",
        "e"
      ],
      [
        "r",
        "i"
      ],
      [
        "v",
        "e"
      ],
      [
        "ar",
        "ia"
      ],
      [
        "view",
        "Bo"
      ],
      [
        "but",
        "ton"
      ],
      [
        "viewBo",
        "x"
      ],
      [
        "3",
        "0"
      ],
      [
        "a",
        "te"
      ],
      [
        "e",
        "ct"
      ],
      [
        "o",
        "p"
      ],
      [
        "p",
        "re"
      ],
      [
        "en",
        "el"
      ],
      [
        "ro",
        "le"
      ],
      [
        "ron",
        "enel"
      ],
      [
        "ronenel",
        "dan"
      ],
      [
        "4",
        "a"
      ],
      [
        "c",
        "on"
      ],
      [
        "i",
        "s"
      ],
      [
        "{",
        "&"
      ],
      [
        "8",
        "3"
      ],
      [
        "A",
        "sp"
      ],
      [
        "R",
        "ati"
      ],
      [
        "Y",
        "Mid"
      ],
      [
        "e",
        "v"
      ],
      [
        "s",
        "c"
      ],
      [
        "x",
        "Mid"
      ],
      [
        "43",
        "5a"
      ],
      [
        "me",
        "et"
      ],
      [
        "ab",
        "le"
      ],
      [
        "ser",
        "ve"
      ],
      [
        "ect",
        "Rati"
      ],
      [
        "pre",
        "serve"
      ],
      [
        "Asp",
        "ectRati"
      ],
      [
        "xMid",
        "YMid"
      ],
      [
        "preserve",
        "AspectRati"
      ],
      [
        "preserveAspectRati",
        "o"
      ],
      [
        "5",
        "6"
      ],
      [
        "6",
        "9"
      ],
      [
        "7",
        "9"
      ],
      [
        "p",
        "t"
      ],
      [
        "s",
        "t"
      ],
      [
        "focus",
        "able"
      ],
      [
        "8",
        "8"
      ],
      [
        "Z",
        "M"
      ],
      [
        "c",
        "o"
      ],
      [
        "i",
        "ty"
      ],
      [
        "o",
        "dd"
      ],
      [
        "19",
        "99"
      ],
      [
        "en",
        "odd"
      ],
      [
        "ru",
        "le"
      ],
      [
        "ev",
        "enodd"
      ],
      [
        "0",
        "3"
      ],
      [
        "ty",
        "pe"
      ],
      [
        "4",
        "2"
      ],
      [
        "5",
        "7"
      ],
      [
        "9",
        "3"
      ],
      [
        "a",
        "2"
      ],
      [
        "n",
        "on"
      ],
      [
        "w",
        "h"
      ],
      [
        "ac",
        "e"
      ],
      [
        "sc",
        "ri"
      ],
      [
        "non",
        "e"
      ],
      [
        "0",
        "1"
      ],
      [
        "2",
        "h"
      ],
      [
        "n",
        "de"
      ],
      [
        "p",
        "x"
      ],
      [
        "t",
        "ag"
      ],
      [
        "rou",
        "nde"
      ],
      [
        "wh",
        "ite"
      ],
      [
        "scri",
        "pt"
      ],
      [
        "rounde",
        "d"
      ],
      [
        "0",
        "39"
      ],
      [
        "7",
        "4"
      ],
      [
        "8",
        "5"
      ],
      [
        "b",
        "g"
      ],
      [
        "u",
        "n"
      ],
      [
        "5",
        "00"
      ],
      [
        "6",
        "3"
      ],
      [
        "l",
        "g"
      ],
      [
        "7",
        "1"
      ],
      [
        "8",
        "9"
      ],
      [
        "9",
        "2"
      ],
      [
        "c",
        "k"
      ],
      [
        "ra",
        "p"
      ],
      [
        "ac",
        "ity"
      ],
      [
        "op",
        "acity"
      ],
      [
        "5",
        "4"
      ],
      [
        "te",
        "n"
      ],
      [
        "iv",
        "e"
      ],
      [
        "43",
        "4a"
      ],
      [
        "con",
        "ten"
      ],
      [
        "1",
        "00"
      ],
      [
        "6",
        "2"
      ],
      [
        "a",
        "p"
      ],
      [
        "b",
        "ra"
      ],
      [
        "c",
        "0"
      ],
      [
        "i",
        "on"
      ],
      [
        "n",
        "a"
      ],
      [
        "r",
        "y"
      ],
      [
        "t",
        "o"
      ],
      [
        "t",
        "ive"
      ],
      [
        "ma",
        "in"
      ],
      [
        "2",
        "V"
      ],
      [
        "4",
        "1"
      ],
      [
        ";",
        "}"
      ],
      [
        "C",
        "8"
      ],
      [
        "Z",
        "m"
      ],
      [
        "a",
        "s"
      ],
      [
        "p",
        "ro"
      ],
      [
        "197",
        "v"
      ],
      [
        "3",
        "a"
      ],
      [
        "5",
        "2"
      ],
      [
        "6",
        "00"
      ],
      [
        "7",
        "2"
      ],
      [
        "d",
        "ow"
      ],
      [
        "g",
        "g"
      ],
      [
        "u",
        "ll"
      ],
      [
        "=\"",
        "#"
      ],
      [
        "la",
        "tive"
      ],
      [
        "re",
        "lative"
      ],
      [
        "http",
        "s"
      ],
      [
        "li",
        "bra"
      ],
      [
        "tra",
        "ns"
      ],
      [
        "/",
        ">"
      ],
      [
        "3",
        "C"
      ],
      [
        "3",
        "00"
      ],
      [
        "7",
        "C"
      ],
      [
        "f",
        "or"
      ],
      [
        "f",
        "ull"
      ],
      [
        "libra",
        "ry"
      ],
      [
        "1",
        "a"
      ],
      [
        "3",
        "75"
      ],
      [
        "7",
        "3"
      ],
      [
        "9",
        "1"
      ],
      [
        "c",
        "e"
      ],
      [
        "c",
        "ate"
      ],
      [
        "i",
        "b"
      ],
      [
        "t",
        "xt"
      ],
      [
        "w",
        "rap"
      ],
      [
        "13",
        "2"
      ],
      [
        "der",
        "line"
      ],
      [
        "tra",
        "in"
      ],
      [
        "un",
        "derline"
      ],
      [
        "for",
        "m"
      ],
      [
        "5",
        "9"
      ],
      [
        "7",
        "00"
      ],
      [
        "C",
        "5"
      ],
      [
        "T",
        "E"
      ],
      [
        "Z",
        "m0"
      ],
      [
        "c",
        "li"
      ],
      [
        "p",
        "y"
      ],
      [
        "u",
        "gg"
      ],
      [
        "z",
        "m0"
      ],
      [
        "196",
        "v"
      ],
      [
        "cli",
        "p"
      ],
      [
        "ugg",
        "ing"
      ],
      [
        "\"",
        ":"
      ],
      [
        "4",
        "0"
      ],
      [
        "C",
        "14"
      ],
      [
        "F",
        "F"
      ],
      [
        "b",
        "lo"
      ],
      [
        "f",
        "on"
      ],
      [
        "p",
        "o"
      ],
      [
        "s",
        "h"
      ],
      [
        "s",
        "ty"
      ],
      [
        "la",
        "b"
      ],
      [
        "ar",
        "g"
      ],
      [
        "lo",
        "ad"
      ],
      [
        "sty",
        "le"
      ],
      [
        "\"",
        ","
      ],
      [
        "6",
        "C"
      ],
      [
        "9",
        "14"
      ],
      [
        "C",
        "16"
      ],
      [
        "C",
        "20"
      ],
      [
        "\\",
        "/"
      ],
      [
        "b",
        "la"
      ],
      [
        "le",
        "ad"
      ],
      [
        "28",
        "4"
      ],
      [
        "ma",
        "x"
      ],
      [
        "na",
        "me"
      ],
      [
        "pro",
        "p"
      ],
      [
        "lab",
        "el"
      ],
      [
        "lead",
        "ing"
      ],
      [
        "2",
        "H"
      ],
      [
        "8",
        "00"
      ],
      [
        "C",
        "1"
      ],
      [
        "V",
        "6"
      ],
      [
        "a",
        "5"
      ],
      [
        "f",
        "ace"
      ],
      [
        "m",
        "o"
      ],
      [
        "v",
        "4"
      ],
      [
        "in",
        "line"
      ],
      [
        "12",
        "5"
      ],
      [
        ";:",
        "["
      ],
      [
        "et",
        "a"
      ],
      [
        "000",
        "39"
      ],
      [
        "ag",
        "e"
      ],
      [
        "as",
        "k"
      ],
      [
        "ugging",
        "face"
      ],
      [
        "2",
        "a"
      ],
      [
        "3",
        "43"
      ],
      [
        "6",
        "25"
      ],
      [
        "6",
        "08"
      ],
      [
        "8",
        "a"
      ],
      [
        "C",
        "6"
      ],
      [
        "C",
        "18"
      ],
      [
        "V",
        "4"
      ],
      [
        "a",
        "ut"
      ],
      [
        "e",
        "d"
      ],
      [
        "g",
        "u"
      ],
      [
        "h",
        "uggingface"
      ],
      [
        "m",
        "eta"
      ],
      [
        "t",
        "arg"
      ],
      [
        "u",
        "s"
      ],
      [
        "x",
        "l"
      ],
      [
        "z",
        "e"
      ],
      [
        "z",
        "m"
      ],
      [
        "00",
        "6"
      ],
      [
        "10",
        "46"
      ],
      [
        "99",
        "H"
      ],
      [
        ";:",
        "{&"
      ],
      [
        "45",
        "04"
      ],
      [
        "31",
        "h"
      ],
      [
        "ati",
        "on"
      ],
      [
        "66",
        "15"
      ],
      [
        "co",
        "m"
      ],
      [
        "\":",
        "\""
      ],
      [
        "blo",
        "ck"
      ],
      [
        "fon",
        "t"
      ],
      [
        "targ",
        "et"
      ],
      [
        ",",
        "{&"
      ],
      [
        "1",
        "14"
      ],
      [
        "4",
        "24"
      ],
      [
        "6",
        "67"
      ],
      [
        "9",
        "6"
      ],
      [
        "C",
        "7"
      ],
      [
        "_",
        "cate"
      ],
      [
        "c",
        "h"
      ],
      [
        "g",
        "ories"
      ],
      [
        "l",
        "s"
      ],
      [
        "n",
        "load"
      ],
      [
        "=\"",
        "\""
      ],
      [
        "00",
        "3"
      ],
      [
        "sp",
        "ace"
      ],
      [
        "23",
        "6"
      ],
      [
        "136",
        "v"
      ],
      [
        "67",
        "4"
      ],
      [
        "193",
        "h"
      ],
      [
        "193",
        "v"
      ],
      [
        "65",
        "039"
      ],
      [
        "it",
        "le"
      ],
      [
        "conten",
        "t"
      ],
      [
        "conten",
        "ts"
      ],
      [
        "dow",
        "nload"
      ],
      [
        "\",",
        "\""
      ],
      [
        "_cate",
        "gories"
      ],
      [
        ")",
        ";"
      ],
      [
        "2",
        "24"
      ],
      [
        "3",
        "A"
      ],
      [
        "3",
        "c"
      ],
      [
        "4",
        "14"
      ],
      [
        "7",
        "23"
      ],
      [
        "7",
        "86"
      ],
      [
        "8",
        "0"
      ],
      [
        "8",
        "4"
      ],
      [
        "8",
        "75"
      ],
      [
        "9",
        "17"
      ],
      [
        "c",
        "d"
      ],
      [
        "e",
        "ll"
      ],
      [
        "i",
        "ze"
      ],
      [
        "o",
        "c"
      ],
      [
        "o",
        "g"
      ],
      [
        "p",
        "la"
      ],
      [
        "t",
        "ight"
      ],
      [
        "t",
        "itle"
      ],
      [
        "u",
        "b"
      ],
      [
        "=\"",
        "."
      ],
      [
        "196",
        "h"
      ],
      [
        "35",
        "786"
      ],
      [
        "64",
        "21"
      ],
      [
        ";}",
        ",{&"
      ],
      [
        "trans",
        "form"
      ],
      [
        "608",
        "1"
      ],
      [
        "0",
        "75"
      ],
      [
        "0",
        "95"
      ],
      [
        "1",
        "a1"
      ],
      [
        "2",
        "v"
      ],
      [
        "2",
        "00"
      ],
      [
        "2",
        "75"
      ],
      [
        "5",
        "06"
      ],
      [
        "5",
        "48"
      ],
      [
        "6",
        "1"
      ],
      [
        "7",
        "18"
      ],
      [
        "7",
        "75"
      ],
      [
        "8",
        "1"
      ],
      [
        "8",
        "07"
      ],
      [
        "9",
        "08"
      ],
      [
        "C",
        "2"
      ],
      [
        "C",
        "3"
      ],
      [
        "C",
        "29"
      ],
      [
        "D",
        "ata"
      ],
      [
        "a",
        "der"
      ],
      [
        "d",
        "i"
      ],
      [
        "m",
        "ent"
      ],
      [
        "p",
        "ar"
      ],
      [
        "la",
        "te"
      ],
      [
        "12",
        "9"
      ],
      [
        "ar",
        "y"
      ],
      [
        "re",
        "d"
      ],
      [
        "an",
        "d"
      ],
      [
        "46",
        "8"
      ],
      [
        "33",
        "74"
      ],
      [
        "ol",
        "d"
      ],
      [
        "35",
        "039"
      ],
      [
        "55",
        "129"
      ],
      [
        "09",
        "45"
      ],
      [
        "trans",
        "late"
      ],
      [
        "ib",
        "le"
      ],
      [
        "bla",
        "ck"
      ],
      [
        "aut",
        "o"
      ],
      [
        "424",
        "46"
      ],
      [
        "0",
        "v"
      ],
      [
        "2",
        "25"
      ],
      [
        "3",
        "02"
      ],
      [
        "4",
        "17"
      ],
      [
        "5",
        "1"
      ],
      [
        "5",
        "67"
      ],
      [
        "8",
        "27"
      ],
      [
        "8",
        "a1"
      ],
      [
        "9",
        "a"
      ],
      [
        "A",
        "TE"
      ],
      [
        "D",
        "R"
      ],
      [
        "E",
        "L"
      ],
      [
        "H",
        "4"
      ],
      [
        "H",
        "Y"
      ],
      [
        "M",
        "4"
      ],
      [
        "M",
        "12"
      ],
      [
        "M",
        "20"
      ],
      [
        "S",
        "V"
      ],
      [
        "]",
        ",&"
      ],
      [
        "_",
        "HY"
      ],
      [
        "d",
        "t"
      ],
      [
        "g",
        "ap"
      ],
      [
        "i",
        "f"
      ],
      [
        "j",
        "s"
      ],
      [
        "m",
        "y"
      ],
      [
        "m",
        "in"
      ],
      [
        "m",
        "ib"
      ],
      [
        "s",
        "ize"
      ],
      [
        "u",
        "r"
      ],
      [
        "u",
        "im"
      ],
      [
        "w",
        "in"
      ],
      [
        "qu",
        "et"
      ],
      [
        "197",
        "h"
      ],
      [
        "15",
        "5"
      ],
      [
        "re",
        "l"
      ],
      [
        "99",
        "99"
      ],
      [
        "se",
        "mib"
      ],
      [
        "22",
        "1"
      ],
      [
        "06",
        "6"
      ],
      [
        "95",
        "917"
      ],
      [
        "5a",
        "2"
      ],
      [
        "47",
        "3"
      ],
      [
        "94",
        "02"
      ],
      [
        "94",
        "03"
      ],
      [
        "TE",
        "_HY"
      ],
      [
        "prop",
        "s"
      ],
      [
        "gu",
        "age"
      ],
      [
        "us",
        "ible"
      ],
      [
        "pla",
        "usible"
      ],
      [
        "718",
        "a"
      ],
      [
        "par",
        "quet"
      ],
      [
        "ATE",
        "R"
      ],
      [
        "DR",
        "ATER"
      ],
      [
        "EL",
        "TE_HY"
      ],
      [
        "SV",
        "ELTE_HY"
      ],
      [
        "win",
        "dow"
      ],
      [
        "semib",
        "old"
      ],
      [
        "SVELTE_HY",
        "DRATER"
      ],
      [
        "-",
        "["
      ],
      [
        "0",
        "a"
      ],
      [
        "0",
        "43"
      ],
      [
        "0",
        "16"
      ],
      [
        "0",
        "37"
      ],
      [
        "1",
        "M"
      ],
      [
        "1",
        "17"
      ],
      [
        "4",
        "28"
      ],
      [
        "6",
        "23"
      ],
      [
        "8",
        "25"
      ],
      [
        "8",
        "39"
      ],
      [
        "8",
        "55"
      ],
      [
        "9",
        "36"
      ],
      [
        "C",
        "9"
      ],
      [
        "C",
        "o"
      ],
      [
        "C",
        "17"
      ],
      [
        "C",
        "28"
      ],
      [
        "F",
        "i"
      ],
      [
        "L",
        "12"
      ],
      [
        "T",
        "h"
      ],
      [
        "V",
        "7"
      ],
      [
        "a",
        "v"
      ],
      [
        "a",
        "in"
      ],
      [
        "b",
        "r"
      ],
      [
        "c",
        "ol"
      ],
      [
        "d",
        "al"
      ],
      [
        "f",
        "a"
      ],
      [
        "j",
        "u"
      ],
      [
        "m",
        "x"
      ],
      [
        "p",
        "r"
      ],
      [
        "s",
        "ol"
      ],
      [
        "u",
        "e"
      ],
      [
        "}",
        ",&"
      ],
      [
        "la",
        "r"
      ],
      [
        "in",
        "ter"
      ],
      [
        "en",
        "er"
      ],
      [
        "13",
        "9"
      ],
      [
        "43",
        "8"
      ],
      [
        "43",
        "a"
      ],
      [
        "43",
        "1a"
      ],
      [
        "75",
        "9"
      ],
      [
        "136",
        "h"
      ],
      [
        "67",
        "11"
      ],
      [
        "193",
        "2"
      ],
      [
        "95",
        "6"
      ],
      [
        "ter",
        "n"
      ],
      [
        "em",
        "e"
      ],
      [
        "35",
        "5"
      ],
      [
        "65",
        "8"
      ],
      [
        "64",
        "99"
      ],
      [
        "datase",
        "t"
      ],
      [
        "st",
        "if"
      ],
      [
        ";:[",
        "&"
      ],
      [
        "Data",
        "se"
      ],
      [
        "ju",
        "stif"
      ],
      [
        "justif",
        "y"
      ],
      [
        ")",
        "\"></"
      ],
      [
        "-",
        "-"
      ],
      [
        "0",
        "32"
      ],
      [
        "2",
        "Z"
      ],
      [
        "2",
        "c"
      ],
      [
        "3",
        "h"
      ],
      [
        "4",
        "26"
      ],
      [
        "4",
        "08"
      ],
      [
        "5",
        "0"
      ],
      [
        "5",
        "18"
      ],
      [
        "5",
        "23"
      ],
      [
        "5",
        "26"
      ],
      [
        "7",
        "37"
      ],
      [
        "8",
        "284"
      ],
      [
        "8",
        "066"
      ],
      [
        "9",
        "d"
      ],
      [
        "9",
        "00"
      ],
      [
        ":",
        "</"
      ],
      [
        "C",
        "4"
      ],
      [
        "C",
        "11"
      ],
      [
        "C",
        "21"
      ],
      [
        "C",
        "30"
      ],
      [
        "C",
        "op"
      ],
      [
        "H",
        "8"
      ],
      [
        "H",
        "28"
      ],
      [
        "M",
        "6"
      ],
      [
        "U",
        "r"
      ],
      [
        "a",
        "3"
      ],
      [
        "b",
        "b"
      ],
      [
        "e",
        "8"
      ],
      [
        "e",
        "y"
      ],
      [
        "f",
        "f"
      ],
      [
        "f",
        "ro"
      ],
      [
        "g",
        "o"
      ],
      [
        "g",
        "ener"
      ],
      [
        "l",
        "y"
      ],
      [
        "m",
        "m"
      ],
      [
        "m",
        "t"
      ],
      [
        "n",
        "o"
      ],
      [
        "n",
        "sp"
      ],
      [
        "n",
        "ow"
      ],
      [
        "n",
        "cate"
      ],
      [
        "n",
        "guage"
      ],
      [
        "o",
        "ur"
      ],
      [
        "r",
        "c"
      ],
      [
        "s",
        "rc"
      ],
      [
        "t",
        "ask"
      ],
      [
        "u",
        "ser"
      ],
      [
        "x",
        "s"
      ],
      [
        "x",
        "iv"
      ],
      [
        "|",
        "|"
      ],
      [
        "=\"",
        "-"
      ],
      [
        "=\"",
        "{&"
      ],
      [
        "la",
        "nguage"
      ],
      [
        "at",
        "ar"
      ],
      [
        "er",
        "ty"
      ],
      [
        "10",
        "V"
      ],
      [
        "10",
        "a2"
      ],
      [
        "ar",
        "ent"
      ],
      [
        "ar",
        "xiv"
      ],
      [
        "re",
        "ct"
      ],
      [
        "16",
        "355"
      ],
      [
        "17",
        "7"
      ],
      [
        "28",
        "a2"
      ],
      [
        "25",
        "20"
      ],
      [
        "20",
        "438"
      ],
      [
        "23",
        "12"
      ],
      [
        "23",
        "11"
      ],
      [
        "11",
        "1"
      ],
      [
        "fi",
        "le"
      ],
      [
        "08",
        "2"
      ],
      [
        "39",
        "4"
      ],
      [
        "67",
        "26"
      ],
      [
        "193",
        "69"
      ],
      [
        "33",
        "114"
      ],
      [
        "33",
        "111"
      ],
      [
        "95",
        "95"
      ],
      [
        "29",
        "46"
      ],
      [
        "35",
        "9"
      ],
      [
        "05",
        "22"
      ],
      [
        "05",
        "38"
      ],
      [
        "34",
        "99"
      ],
      [
        "48",
        "0"
      ],
      [
        "he",
        "ader"
      ],
      [
        "de",
        "ls"
      ],
      [
        "49",
        "33"
      ],
      [
        "97",
        "e"
      ],
      [
        "68",
        "37"
      ],
      [
        "ct",
        "ion"
      ],
      [
        "tru",
        "ncate"
      ],
      [
        "tra",
        "nsp"
      ],
      [
        "con",
        "t"
      ],
      [
        "83",
        "45"
      ],
      [
        "56",
        "a"
      ],
      [
        "56",
        "6711"
      ],
      [
        "88",
        "125"
      ],
      [
        "form",
        "at"
      ],
      [
        "prop",
        "erty"
      ],
      [
        "mo",
        "dal"
      ],
      [
        "31h",
        "4"
      ],
      [
        "723",
        "75"
      ],
      [
        "807",
        "09"
      ],
      [
        "936",
        "43"
      ],
      [
        "av",
        "atar"
      ],
      [
        "lar",
        "s"
      ],
      [
        "518",
        "1"
      ],
      [
        "Cop",
        "y"
      ],
      [
        "Ur",
        "l"
      ],
      [
        "fro",
        "m"
      ],
      [
        "now",
        "rap"
      ],
      [
        "task",
        "_categories"
      ],
      [
        "2520",
        "1"
      ],
      [
        "transp",
        "arent"
      ],
      [
        "0",
        "26"
      ],
      [
        "0",
        "46"
      ],
      [
        "3",
        "12"
      ],
      [
        "3",
        "26"
      ],
      [
        "4",
        "c"
      ],
      [
        "4",
        "h"
      ],
      [
        "4",
        "75"
      ],
      [
        "4",
        "95"
      ],
      [
        "5",
        "V"
      ],
      [
        "5",
        "33"
      ],
      [
        "5",
        "35"
      ],
      [
        "5",
        "76"
      ],
      [
        "5",
        "34"
      ],
      [
        "6",
        "l"
      ],
      [
        "6",
        "24"
      ],
      [
        "7",
        "13"
      ],
      [
        "7",
        "26"
      ],
      [
        "8",
        "36"
      ],
      [
        "9",
        "D"
      ],
      [
        "9",
        "c"
      ],
      [
        "C",
        "0"
      ],
      [
        "C",
        "12"
      ],
      [
        "D",
        "21"
      ],
      [
        "H",
        "6"
      ],
      [
        "L",
        "3"
      ],
      [
        "L",
        "16"
      ],
      [
        "M",
        "5"
      ],
      [
        "M",
        "o"
      ],
      [
        "M",
        "16"
      ],
      [
        "P",
        "ro"
      ],
      [
        "T",
        "e"
      ],
      [
        "V",
        "9"
      ],
      [
        "]",
        "},&"
      ],
      [
        "b",
        "l"
      ],
      [
        "c",
        "f"
      ],
      [
        "c",
        "ss"
      ],
      [
        "c",
        "an"
      ],
      [
        "d",
        "o"
      ],
      [
        "e",
        "st"
      ],
      [
        "f",
        "lo"
      ],
      [
        "g",
        "ion"
      ],
      [
        "h",
        "f"
      ],
      [
        "i",
        "al"
      ],
      [
        "i",
        "ls"
      ],
      [
        "n",
        "g"
      ],
      [
        "o",
        "ut"
      ],
      [
        "s",
        "he"
      ],
      [
        "t",
        "i"
      ],
      [
        "t",
        "he"
      ],
      [
        "t",
        "ab"
      ],
      [
        "u",
        "te"
      ],
      [
        "y",
        "ell"
      ],
      [
        "00",
        "2"
      ],
      [
        "10",
        "1"
      ],
      [
        "10",
        "M"
      ],
      [
        "10",
        "45"
      ],
      [
        "ar",
        "d"
      ],
      [
        "ar",
        "ing"
      ],
      [
        "re",
        "m"
      ],
      [
        "17",
        "6"
      ],
      [
        "28",
        "3"
      ],
      [
        "20",
        "4"
      ],
      [
        "23",
        "05"
      ],
      [
        "46",
        "6"
      ],
      [
        "cu",
        "ment"
      ],
      [
        "08",
        "5"
      ],
      [
        "08",
        "7"
      ],
      [
        "39",
        "58"
      ],
      [
        "45",
        "8"
      ],
      [
        "33",
        "3"
      ],
      [
        "al",
        "tern"
      ],
      [
        "35",
        "l"
      ],
      [
        "04",
        "1"
      ],
      [
        "04",
        "2"
      ],
      [
        "07",
        "759"
      ],
      [
        "05",
        "6"
      ],
      [
        "05",
        "7"
      ],
      [
        "cen",
        "se"
      ],
      [
        "over",
        "flo"
      ],
      [
        "47",
        "1"
      ],
      [
        "ad",
        "ow"
      ],
      [
        "87",
        "37"
      ],
      [
        "192",
        "h"
      ],
      [
        "192",
        "v"
      ],
      [
        "op",
        "en"
      ],
      [
        "ion",
        "s"
      ],
      [
        "FF",
        "9D"
      ],
      [
        "FF",
        "D21"
      ],
      [
        "po",
        "inter"
      ],
      [
        "sh",
        "aring"
      ],
      [
        "sh",
        "adow"
      ],
      [
        "style",
        "she"
      ],
      [
        ";:[",
        "{&"
      ],
      [
        "cd",
        "la"
      ],
      [
        "size",
        "_categories"
      ],
      [
        "Co",
        "mm"
      ],
      [
        "Th",
        "eme"
      ],
      [
        "gener",
        "ation"
      ],
      [
        "cont",
        "ain"
      ],
      [
        "modal",
        "ity"
      ],
      [
        "bl",
        "ue"
      ],
      [
        "do",
        "cument"
      ],
      [
        "out",
        "line"
      ],
      [
        "yell",
        "ow"
      ],
      [
        "altern",
        "ate"
      ],
      [
        "overflo",
        "w"
      ],
      [
        "FFD21",
        "E"
      ],
      [
        "styleshe",
        "et"
      ],
      [
        "0",
        "f"
      ],
      [
        "0",
        "l"
      ],
      [
        "0",
        "12"
      ],
      [
        "0",
        "17"
      ],
      [
        "0",
        "22"
      ],
      [
        "1",
        "h"
      ],
      [
        "2",
        "z"
      ],
      [
        "2",
        "zm0"
      ],
      [
        "3",
        "ab"
      ],
      [
        "4",
        "43"
      ],
      [
        "4",
        "25"
      ],
      [
        "4",
        "76"
      ],
      [
        "5",
        "e"
      ],
      [
        "5",
        "24"
      ],
      [
        "5",
        "44"
      ],
      [
        "5",
        "42"
      ],
      [
        "6",
        "a"
      ],
      [
        "6",
        "c"
      ],
      [
        "6",
        "10"
      ],
      [
        "6",
        "48"
      ],
      [
        "6",
        "97"
      ],
      [
        "6",
        "046"
      ],
      [
        "7",
        "0"
      ],
      [
        "7",
        "Z"
      ],
      [
        "7",
        "19"
      ],
      [
        "7",
        "14"
      ],
      [
        "7",
        "082"
      ],
      [
        "8",
        "14"
      ],
      [
        "8",
        "20"
      ],
      [
        "8",
        "193"
      ],
      [
        "8",
        "44"
      ],
      [
        "9",
        "f"
      ],
      [
        "9",
        "25"
      ],
      [
        "9",
        "46"
      ],
      [
        "9",
        "06"
      ],
      [
        ":",
        "\\/"
      ],
      [
        ";",
        "],&"
      ],
      [
        "=",
        "="
      ],
      [
        "A",
        "2"
      ],
      [
        "C",
        "10"
      ],
      [
        "C",
        "26"
      ],
      [
        "H",
        "15"
      ],
      [
        "I",
        "n"
      ],
      [
        "K",
        "ey"
      ],
      [
        "L",
        "5"
      ],
      [
        "L",
        "6"
      ],
      [
        "L",
        "8"
      ],
      [
        "L",
        "i"
      ],
      [
        "P",
        "o"
      ],
      [
        "S",
        "e"
      ],
      [
        "V",
        "2"
      ],
      [
        "V",
        "13"
      ],
      [
        "a",
        "8"
      ],
      [
        "a",
        "ll"
      ],
      [
        "a",
        "se"
      ],
      [
        "b",
        "e"
      ],
      [
        "b",
        "ase"
      ],
      [
        "c",
        "or"
      ],
      [
        "c",
        "ro"
      ],
      [
        "c",
        "ard"
      ],
      [
        "d",
        "5"
      ],
      [
        "d",
        "is"
      ],
      [
        "d",
        "ask"
      ],
      [
        "d",
        "oc"
      ],
      [
        "i",
        "p"
      ],
      [
        "i",
        "ss"
      ],
      [
        "m",
        "at"
      ],
      [
        "s",
        "or"
      ],
      [
        "u",
        "mb"
      ],
      [
        "v",
        "al"
      ],
      [
        "{",
        "}"
      ],
      [
        "00",
        "9"
      ],
      [
        "in",
        "it"
      ],
      [
        "en",
        "ce"
      ],
      [
        "13",
        "5"
      ],
      [
        "13",
        "7"
      ],
      [
        "13",
        "8"
      ],
      [
        "or",
        "t"
      ],
      [
        "ss",
        "ions"
      ],
      [
        "12",
        "8"
      ],
      [
        "12",
        "Z"
      ],
      [
        "12",
        "h"
      ],
      [
        "12",
        "86"
      ],
      [
        "on",
        "o"
      ],
      [
        "14",
        "6"
      ],
      [
        "14",
        "022"
      ],
      [
        "10",
        "9"
      ],
      [
        "15",
        "3"
      ],
      [
        "15",
        "98"
      ],
      [
        "15",
        "C16"
      ],
      [
        "15",
        "97e"
      ],
      [
        "re",
        "po"
      ],
      [
        "re",
        "gion"
      ],
      [
        "43",
        "95"
      ],
      [
        "16",
        "032"
      ],
      [
        "17",
        "52"
      ],
      [
        "an",
        "t"
      ],
      [
        "18",
        "3"
      ],
      [
        "18",
        "5"
      ],
      [
        "99",
        "7"
      ],
      [
        "28",
        "0a"
      ],
      [
        "25",
        "3"
      ],
      [
        "25",
        "74"
      ],
      [
        "20",
        "23"
      ],
      [
        "20",
        "6C"
      ],
      [
        "46",
        "009"
      ],
      [
        "cu",
        "ssions"
      ],
      [
        "22",
        "bb"
      ],
      [
        "67",
        "43"
      ],
      [
        "67",
        "72"
      ],
      [
        "06",
        "1"
      ],
      [
        "06",
        "2"
      ],
      [
        "06",
        "53"
      ],
      [
        "45",
        "2"
      ],
      [
        "196",
        "Zm0"
      ],
      [
        "196",
        "zm0"
      ],
      [
        "al",
        "t"
      ],
      [
        "95",
        "3"
      ],
      [
        "76",
        "c"
      ],
      [
        "li",
        "cense"
      ],
      [
        "27",
        "312"
      ],
      [
        "65",
        "f"
      ],
      [
        "07",
        "7"
      ],
      [
        "38",
        "3"
      ],
      [
        "38",
        "39"
      ],
      [
        "he",
        "ad"
      ],
      [
        "55",
        "7"
      ],
      [
        "55",
        "6a"
      ],
      [
        "cur",
        "sor"
      ],
      [
        "de",
        "script"
      ],
      [
        "de",
        "cor"
      ],
      [
        "im",
        "e"
      ],
      [
        "49",
        "6"
      ],
      [
        "86",
        "26"
      ],
      [
        "31",
        "v"
      ],
      [
        "th",
        "umb"
      ],
      [
        "09",
        "4"
      ],
      [
        "09",
        "359"
      ],
      [
        "97",
        "27"
      ],
      [
        "97",
        "1597e"
      ],
      [
        "68",
        "75"
      ],
      [
        "ab",
        "sol"
      ],
      [
        "lo",
        "go"
      ],
      [
        "line",
        "ar"
      ],
      [
        "78",
        "473"
      ],
      [
        "87",
        "25"
      ],
      [
        "82",
        "c"
      ],
      [
        "ate",
        "d"
      ],
      [
        "ZM",
        "6"
      ],
      [
        "57",
        "3"
      ],
      [
        "01",
        "a"
      ],
      [
        "2h",
        "3"
      ],
      [
        "2h",
        "8a1"
      ],
      [
        "white",
        "space"
      ],
      [
        "85",
        "45"
      ],
      [
        "ap",
        "i"
      ],
      [
        "na",
        "ils"
      ],
      [
        "2V",
        "4"
      ],
      [
        "197v",
        "3"
      ],
      [
        "3a",
        "3"
      ],
      [
        "3C",
        "24"
      ],
      [
        "po",
        "lars"
      ],
      [
        "914",
        "06"
      ],
      [
        "mo",
        "dels"
      ],
      [
        "343",
        "280a"
      ],
      [
        "gu",
        "est"
      ],
      [
        "99H",
        "8"
      ],
      [
        "com",
        "m"
      ],
      [
        "236",
        "28"
      ],
      [
        "224",
        "6C"
      ],
      [
        "875",
        "3"
      ],
      [
        "cd",
        "n"
      ],
      [
        "ell",
        "ip"
      ],
      [
        "506",
        "86"
      ],
      [
        "548",
        "4"
      ],
      [
        "417",
        "2"
      ],
      [
        "827",
        "3"
      ],
      [
        "117",
        "3"
      ],
      [
        "623",
        "14"
      ],
      [
        "825",
        "8"
      ],
      [
        "839",
        "68"
      ],
      [
        "Fi",
        "le"
      ],
      [
        "fa",
        "343280a"
      ],
      [
        "Datase",
        "ts"
      ],
      [
        "523",
        "7"
      ],
      [
        "9d",
        "0f"
      ],
      [
        "our",
        "ce"
      ],
      [
        "avatar",
        "s"
      ],
      [
        "726",
        "88"
      ],
      [
        "1045",
        "7"
      ],
      [
        "085",
        "94"
      ],
      [
        "3ab",
        "fa343280a"
      ],
      [
        "544",
        "11"
      ],
      [
        "610",
        "7C"
      ],
      [
        "820",
        "36"
      ],
      [
        "9f",
        "3abfa343280a"
      ],
      [
        "906",
        "41"
      ],
      [
        ":\\/",
        "\\/"
      ],
      [
        "dis",
        "cussions"
      ],
      [
        "iss",
        "ant"
      ],
      [
        "22bb",
        "971597e"
      ],
      [
        "descript",
        "ion"
      ],
      [
        "decor",
        "ation"
      ],
      [
        "thumb",
        "nails"
      ],
      [
        "absol",
        "ute"
      ],
      [
        "guest",
        "Theme"
      ],
      [
        "ellip",
        "se"
      ],
      [
        "9d0f",
        "65f"
      ],
      [
        "9f3abfa343280a",
        "9d0f65f"
      ],
      [
        "22bb971597e",
        "9f3abfa343280a9d0f65f"
      ],
      [
        "!",
        "--"
      ],
      [
        "\"",
        ";"
      ],
      [
        ")",
        "."
      ],
      [
        ".",
        "\""
      ],
      [
        "0",
        "B"
      ],
      [
        "0",
        "c"
      ],
      [
        "0",
        "15"
      ],
      [
        "0",
        "99"
      ],
      [
        "0",
        "76"
      ],
      [
        "0",
        "34"
      ],
      [
        "0",
        "38"
      ],
      [
        "0",
        "de"
      ],
      [
        "0",
        "31"
      ],
      [
        "0",
        "35l"
      ],
      [
        "1",
        "C"
      ],
      [
        "1",
        "19"
      ],
      [
        "1",
        "13"
      ],
      [
        "1",
        "18"
      ],
      [
        "2",
        "L"
      ],
      [
        "2",
        "13"
      ],
      [
        "2",
        "43"
      ],
      [
        "2",
        "17"
      ],
      [
        "2",
        "99"
      ],
      [
        "2",
        "xl"
      ],
      [
        "3",
        "23"
      ],
      [
        "3",
        "08"
      ],
      [
        "3",
        "ZM"
      ],
      [
        "3",
        "c0"
      ],
      [
        "3",
        "Zm"
      ],
      [
        "4",
        "l"
      ],
      [
        "4",
        "12"
      ],
      [
        "4",
        "46"
      ],
      [
        "4",
        "99H"
      ],
      [
        "5",
        "28"
      ],
      [
        "5",
        "08"
      ],
      [
        "5",
        "22"
      ],
      [
        "5",
        "ZM"
      ],
      [
        "5",
        "125"
      ],
      [
        "5",
        "C9"
      ],
      [
        "6",
        "Z"
      ],
      [
        "6",
        "46"
      ],
      [
        "6",
        "39"
      ],
      [
        "6",
        "06"
      ],
      [
        "6",
        "05"
      ],
      [
        "6",
        "34"
      ],
      [
        "6",
        "1a"
      ],
      [
        "7",
        "a"
      ],
      [
        "7",
        "e"
      ],
      [
        "7",
        "h"
      ],
      [
        "7",
        "15"
      ],
      [
        "7",
        "17"
      ],
      [
        "7",
        "99"
      ],
      [
        "7",
        "25"
      ],
      [
        "7",
        "24"
      ],
      [
        "7",
        "07"
      ],
      [
        "8",
        "h"
      ],
      [
        "8",
        "43"
      ],
      [
        "8",
        "26"
      ],
      [
        "8",
        "08"
      ],
      [
        "8",
        "35"
      ],
      [
        "8",
        "65"
      ],
      [
        "8",
        "48"
      ],
      [
        "8",
        "86"
      ],
      [
        "8",
        "94"
      ],
      [
        "8",
        "57"
      ],
      [
        "9",
        "h"
      ],
      [
        "9",
        "26"
      ],
      [
        "9",
        "39"
      ],
      [
        "9",
        "45"
      ],
      [
        "9",
        "04"
      ],
      [
        "9",
        "65"
      ],
      [
        ";",
        "]},&"
      ],
      [
        "A",
        "7"
      ],
      [
        "E",
        "ng"
      ],
      [
        "F",
        "ace"
      ],
      [
        "H",
        "2"
      ],
      [
        "H",
        "e"
      ],
      [
        "H",
        "f"
      ],
      [
        "H",
        "12"
      ],
      [
        "H",
        "ugging"
      ],
      [
        "H",
        "10V"
      ],
      [
        "H",
        "2V4"
      ],
      [
        "L",
        "a"
      ],
      [
        "L",
        "11"
      ],
      [
        "M",
        "1"
      ],
      [
        "M",
        "8"
      ],
      [
        "M",
        "14"
      ],
      [
        "M",
        "28"
      ],
      [
        "R",
        "e"
      ],
      [
        "T",
        "A"
      ],
      [
        "V",
        "3"
      ],
      [
        "V",
        "5"
      ],
      [
        "V",
        "iew"
      ],
      [
        "X",
        "et"
      ],
      [
        "_",
        "id"
      ],
      [
        "a",
        "k"
      ],
      [
        "b",
        "o"
      ],
      [
        "b",
        "s"
      ],
      [
        "b",
        "le"
      ],
      [
        "b",
        "as"
      ],
      [
        "c",
        "1"
      ],
      [
        "c",
        "2"
      ],
      [
        "c",
        "b"
      ],
      [
        "c",
        "re"
      ],
      [
        "c",
        "al"
      ],
      [
        "c",
        "he"
      ],
      [
        "c",
        "lo"
      ],
      [
        "d",
        "f"
      ],
      [
        "d",
        "s"
      ],
      [
        "d",
        "v"
      ],
      [
        "d",
        "ing"
      ],
      [
        "e",
        "a"
      ],
      [
        "f",
        "er"
      ],
      [
        "f",
        "ron"
      ],
      [
        "g",
        "e"
      ],
      [
        "g",
        "h"
      ],
      [
        "g",
        "re"
      ],
      [
        "h",
        "1"
      ],
      [
        "h",
        "3"
      ],
      [
        "h",
        "or"
      ],
      [
        "i",
        "l"
      ],
      [
        "k",
        "e"
      ],
      [
        "k",
        "ub"
      ],
      [
        "l",
        "2"
      ],
      [
        "l",
        "ot"
      ],
      [
        "m",
        "ono"
      ],
      [
        "n",
        "k"
      ],
      [
        "p",
        "i"
      ],
      [
        "p",
        "l"
      ],
      [
        "p",
        "ri"
      ],
      [
        "p",
        "ap"
      ],
      [
        "r",
        "ot"
      ],
      [
        "s",
        "w"
      ],
      [
        "s",
        "ub"
      ],
      [
        "s",
        "ource"
      ],
      [
        "s",
        "lot"
      ],
      [
        "t",
        "w"
      ],
      [
        "t",
        "ime"
      ],
      [
        "u",
        "p"
      ],
      [
        "v",
        "6"
      ],
      [
        "v",
        "7"
      ],
      [
        "w",
        "e"
      ],
      [
        "x",
        "et"
      ],
      [
        "{",
        "\""
      ],
      [
        "}",
        "\"><"
      ],
      [
        "19",
        "8"
      ],
      [
        "19",
        "v"
      ],
      [
        "19",
        "zm"
      ],
      [
        "te",
        "ll"
      ],
      [
        "197",
        "zm0"
      ],
      [
        "la",
        "y"
      ],
      [
        "in",
        "de"
      ],
      [
        "in",
        "tell"
      ],
      [
        "en",
        "d"
      ],
      [
        "en",
        "co"
      ],
      [
        "13",
        "8a"
      ],
      [
        "le",
        "te"
      ],
      [
        "12",
        "l"
      ],
      [
        "12",
        "z"
      ],
      [
        "14",
        "1"
      ],
      [
        "14",
        "4"
      ],
      [
        "14",
        "a"
      ],
      [
        "14",
        "c"
      ],
      [
        "10",
        "6"
      ],
      [
        "10",
        "l"
      ],
      [
        "10",
        "H28"
      ],
      [
        "15",
        "58"
      ],
      [
        "re",
        "sol"
      ],
      [
        "16",
        "9"
      ],
      [
        "16",
        "042"
      ],
      [
        "ll",
        "ow"
      ],
      [
        "18",
        "8"
      ],
      [
        "18",
        "V4"
      ],
      [
        "18",
        "H2V4"
      ],
      [
        "99",
        "3"
      ],
      [
        "99",
        "4"
      ],
      [
        "99",
        "8"
      ],
      [
        "ro",
        "w"
      ],
      [
        "28",
        "75"
      ],
      [
        "28",
        "H10V"
      ],
      [
        "ht",
        "ml"
      ],
      [
        "sp",
        "lay"
      ],
      [
        "75",
        "6"
      ],
      [
        "75",
        "452"
      ],
      [
        "24",
        "4"
      ],
      [
        "23",
        "674"
      ],
      [
        "26",
        "2"
      ],
      [
        "26",
        "07"
      ],
      [
        "fi",
        "c"
      ],
      [
        "46",
        "5"
      ],
      [
        "08",
        "3"
      ],
      [
        "08",
        "20"
      ],
      [
        "08",
        "e8"
      ],
      [
        "08",
        "099"
      ],
      [
        "39",
        "44"
      ],
      [
        "193",
        "Zm0"
      ],
      [
        "06",
        "5"
      ],
      [
        "45",
        "807"
      ],
      [
        "196",
        "4"
      ],
      [
        "196",
        "V"
      ],
      [
        "95",
        "0"
      ],
      [
        "ml",
        "cro"
      ],
      [
        "ter",
        "ti"
      ],
      [
        "ent",
        "ly"
      ],
      [
        "29",
        "3"
      ],
      [
        "35",
        "8"
      ],
      [
        "76",
        "8"
      ],
      [
        "04",
        "8"
      ],
      [
        "04",
        "9"
      ],
      [
        "li",
        "sh"
      ],
      [
        "27",
        "a"
      ],
      [
        "07",
        "4"
      ],
      [
        "07",
        "c"
      ],
      [
        "07",
        "76"
      ],
      [
        "37",
        "499H"
      ],
      [
        "98",
        "4"
      ],
      [
        "98",
        "08"
      ],
      [
        "55",
        "2a"
      ],
      [
        "ig",
        "n"
      ],
      [
        "de",
        "fer"
      ],
      [
        "im",
        "age"
      ],
      [
        "im",
        "ary"
      ],
      [
        "49",
        "7"
      ],
      [
        "th",
        "is"
      ],
      [
        "000",
        "Z"
      ],
      [
        "64",
        "1"
      ],
      [
        "ref",
        "s"
      ],
      [
        "44",
        "466"
      ],
      [
        "36",
        "0de"
      ],
      [
        "47",
        "2"
      ],
      [
        "view",
        "er"
      ],
      [
        "58",
        "5"
      ],
      [
        "78",
        "3"
      ],
      [
        "82",
        "A7"
      ],
      [
        "53",
        "109"
      ],
      [
        "it",
        "ter"
      ],
      [
        "ri",
        "pe"
      ],
      [
        "30",
        "221"
      ],
      [
        "is",
        "Hf"
      ],
      [
        "83",
        "049"
      ],
      [
        "56",
        "326"
      ],
      [
        "st",
        "ories"
      ],
      [
        "ZM",
        "1"
      ],
      [
        "ZM",
        "3"
      ],
      [
        "ZM",
        "4"
      ],
      [
        "85",
        "37"
      ],
      [
        "63",
        "75"
      ],
      [
        "to",
        "m"
      ],
      [
        "2V",
        "10a2"
      ],
      [
        "2V",
        "28a2"
      ],
      [
        ";}",
        "],&"
      ],
      [
        "pro",
        "ble"
      ],
      [
        "73",
        "l"
      ],
      [
        "196v",
        "1"
      ],
      [
        "196v",
        "3"
      ],
      [
        "blo",
        "b"
      ],
      [
        "fon",
        "ts"
      ],
      [
        "bla",
        "nk"
      ],
      [
        "2H",
        "10a2"
      ],
      [
        "2H",
        "28a2"
      ],
      [
        "2H",
        "18V4"
      ],
      [
        "800",
        "16"
      ],
      [
        "00039",
        "C8"
      ],
      [
        "V4",
        "h"
      ],
      [
        "aut",
        "hor"
      ],
      [
        "99H",
        "2"
      ],
      [
        "space",
        "s"
      ],
      [
        "136v",
        "2"
      ],
      [
        "193v",
        "1"
      ],
      [
        "download",
        "s"
      ],
      [
        ");",
        "\"><"
      ],
      [
        "3c",
        "1"
      ],
      [
        "548",
        "526"
      ],
      [
        "di",
        "splay"
      ],
      [
        "0945",
        "V6"
      ],
      [
        "H4",
        "Z"
      ],
      [
        "9999",
        "C8"
      ],
      [
        "9999",
        "C1"
      ],
      [
        "037",
        "49"
      ],
      [
        "Fi",
        "x"
      ],
      [
        "pr",
        "imary"
      ],
      [
        "Datase",
        "t"
      ],
      [
        "408",
        "l"
      ],
      [
        "10V",
        "28H10V"
      ],
      [
        "177",
        "49"
      ],
      [
        "2946",
        "C14"
      ],
      [
        "480",
        "29"
      ],
      [
        "4933",
        "C28"
      ],
      [
        "88125",
        "V5"
      ],
      [
        "Te",
        "xt"
      ],
      [
        "3958",
        "4"
      ],
      [
        "8737",
        "7C"
      ],
      [
        "FF9D",
        "0B"
      ],
      [
        "Comm",
        "it"
      ],
      [
        "contain",
        "er"
      ],
      [
        "697",
        "8"
      ],
      [
        "844",
        "17"
      ],
      [
        "146",
        "35"
      ],
      [
        "comm",
        "it"
      ],
      [
        "File",
        "s"
      ],
      [
        "865",
        "993"
      ],
      [
        "926",
        "99"
      ],
      [
        "945",
        "49"
      ],
      [
        "Eng",
        "lish"
      ],
      [
        "He",
        "ader"
      ],
      [
        "View",
        "er"
      ],
      [
        "bas",
        "is"
      ],
      [
        "fron",
        "t"
      ],
      [
        "gre",
        "en"
      ],
      [
        "il",
        "d"
      ],
      [
        "kub",
        "e"
      ],
      [
        "pap",
        "er"
      ],
      [
        "rot",
        "ate"
      ],
      [
        "tw",
        "itter"
      ],
      [
        "inde",
        "x"
      ],
      [
        "intell",
        "ig"
      ],
      [
        "enco",
        "ding"
      ],
      [
        "10H28",
        "m0"
      ],
      [
        "1558",
        "8"
      ],
      [
        "resol",
        "ve"
      ],
      [
        "18H2V4",
        "A2"
      ],
      [
        "08e8",
        "472"
      ],
      [
        "3944",
        "4"
      ],
      [
        "mlcro",
        "issant"
      ],
      [
        "terti",
        "ary"
      ],
      [
        "360de",
        "g"
      ],
      [
        "proble",
        "m"
      ],
      [
        "2H18V4",
        "H4Z"
      ],
      [
        "10V28H10V",
        "10H28m0"
      ],
      [
        "\"",
        ");"
      ],
      [
        "(",
        "\""
      ],
      [
        "(",
        "'"
      ],
      [
        ")",
        "]"
      ],
      [
        ")",
        ");"
      ],
      [
        ".",
        "\\"
      ],
      [
        "/",
        "</"
      ],
      [
        "0",
        "Z"
      ],
      [
        "0",
        "18"
      ],
      [
        "0",
        "25"
      ],
      [
        "0",
        "23"
      ],
      [
        "0",
        "67"
      ],
      [
        "0",
        "27"
      ],
      [
        "0",
        "98"
      ],
      [
        "0",
        "V4"
      ],
      [
        "1",
        "c"
      ],
      [
        "1",
        "z"
      ],
      [
        "1",
        "197"
      ],
      [
        "1",
        "C6"
      ],
      [
        "1",
        "1964"
      ],
      [
        "2",
        "C"
      ],
      [
        "2",
        "12"
      ],
      [
        "2",
        "18"
      ],
      [
        "2",
        "76"
      ],
      [
        "2",
        "c0"
      ],
      [
        "2",
        "C16"
      ],
      [
        "2",
        "v4"
      ],
      [
        "2",
        "139"
      ],
      [
        "3",
        "B"
      ],
      [
        "3",
        "s"
      ],
      [
        "3",
        "14"
      ],
      [
        "3",
        "17"
      ],
      [
        "3",
        "46"
      ],
      [
        "3",
        "45"
      ],
      [
        "3",
        "29"
      ],
      [
        "3",
        "04"
      ],
      [
        "3",
        "27"
      ],
      [
        "3",
        "05"
      ],
      [
        "3",
        "px"
      ],
      [
        "3",
        "177"
      ],
      [
        "3",
        "074"
      ],
      [
        "4",
        "b"
      ],
      [
        "4",
        "10"
      ],
      [
        "4",
        "15"
      ],
      [
        "4",
        "18"
      ],
      [
        "4",
        "11"
      ],
      [
        "4",
        "22"
      ],
      [
        "4",
        "05"
      ],
      [
        "4",
        "a1"
      ],
      [
        "4",
        "zm0"
      ],
      [
        "4",
        "139"
      ],
      [
        "4",
        "169"
      ],
      [
        "5",
        "h"
      ],
      [
        "5",
        "z"
      ],
      [
        "5",
        "75"
      ],
      [
        "5",
        "46"
      ],
      [
        "5",
        "45"
      ],
      [
        "5",
        "05"
      ],
      [
        "5",
        "38"
      ],
      [
        "5",
        "31"
      ],
      [
        "5",
        "09"
      ],
      [
        "5",
        "02"
      ],
      [
        "5",
        "79"
      ],
      [
        "5",
        "C8"
      ],
      [
        "5",
        "C5"
      ],
      [
        "5",
        "C16"
      ],
      [
        "5",
        "C20"
      ],
      [
        "5",
        "284"
      ],
      [
        "5",
        "057"
      ],
      [
        "5",
        "497"
      ],
      [
        "6",
        "H"
      ],
      [
        "6",
        "h"
      ],
      [
        "6",
        "19"
      ],
      [
        "6",
        "15"
      ],
      [
        "6",
        "43"
      ],
      [
        "6",
        "17"
      ],
      [
        "6",
        "18"
      ],
      [
        "6",
        "33"
      ],
      [
        "6",
        "95"
      ],
      [
        "6",
        "65"
      ],
      [
        "6",
        "49"
      ],
      [
        "6",
        "94"
      ],
      [
        "6",
        "zm"
      ],
      [
        "6",
        "236"
      ],
      [
        "6",
        "075"
      ],
      [
        "6",
        "077"
      ],
      [
        "7",
        "d"
      ],
      [
        "7",
        "v"
      ],
      [
        "7",
        "46"
      ],
      [
        "7",
        "22"
      ],
      [
        "7",
        "67"
      ],
      [
        "7",
        "45"
      ],
      [
        "7",
        "95"
      ],
      [
        "7",
        "38"
      ],
      [
        "7",
        "48"
      ],
      [
        "7",
        "94"
      ],
      [
        "7",
        "a1"
      ],
      [
        "7",
        "4a"
      ],
      [
        "7",
        "043"
      ],
      [
        "7",
        "956"
      ],
      [
        "7",
        "283"
      ],
      [
        "7",
        "458"
      ],
      [
        "7",
        "4395"
      ],
      [
        "7",
        "27a"
      ],
      [
        "8",
        "e"
      ],
      [
        "8",
        "f"
      ],
      [
        "8",
        "z"
      ],
      [
        "8",
        "10"
      ],
      [
        "8",
        "16"
      ],
      [
        "8",
        "95"
      ],
      [
        "8",
        "05"
      ],
      [
        "8",
        "77"
      ],
      [
        "8",
        "82"
      ],
      [
        "8",
        "4a"
      ],
      [
        "8",
        "03"
      ],
      [
        "8",
        "C17"
      ],
      [
        "8",
        "956"
      ],
      [
        "8",
        "994"
      ],
      [
        "9",
        "C"
      ],
      [
        "9",
        "43"
      ],
      [
        "9",
        "16"
      ],
      [
        "9",
        "18"
      ],
      [
        "9",
        "28"
      ],
      [
        "9",
        "33"
      ],
      [
        "9",
        "27"
      ],
      [
        "9",
        "34"
      ],
      [
        "9",
        "64"
      ],
      [
        "9",
        "674"
      ],
      [
        "9",
        "139"
      ],
      [
        "9",
        "394"
      ],
      [
        "9",
        "C12"
      ],
      [
        "9",
        "057"
      ],
      [
        "9",
        "756"
      ],
      [
        ";",
        "/"
      ],
      [
        "<",
        "!--"
      ],
      [
        "A",
        "1"
      ],
      [
        "A",
        "pi"
      ],
      [
        "B",
        "y"
      ],
      [
        "B",
        "lo"
      ],
      [
        "C",
        "24"
      ],
      [
        "C",
        "23"
      ],
      [
        "C",
        "27"
      ],
      [
        "D",
        "is"
      ],
      [
        "D",
        "ev"
      ],
      [
        "D",
        "ask"
      ],
      [
        "E",
        "le"
      ],
      [
        "G",
        "B"
      ],
      [
        "G",
        "P"
      ],
      [
        "G",
        "_"
      ],
      [
        "G",
        "it"
      ],
      [
        "H",
        "5"
      ],
      [
        "H",
        "7"
      ],
      [
        "H",
        "T"
      ],
      [
        "H",
        "17"
      ],
      [
        "K",
        "a"
      ],
      [
        "L",
        "1"
      ],
      [
        "L",
        "4"
      ],
      [
        "L",
        "_"
      ],
      [
        "L",
        "17"
      ],
      [
        "L",
        "an"
      ],
      [
        "L",
        "arg"
      ],
      [
        "M",
        "2"
      ],
      [
        "M",
        "18"
      ],
      [
        "M",
        "25"
      ],
      [
        "M",
        "ain"
      ],
      [
        "M",
        "L_"
      ],
      [
        "N",
        "a"
      ],
      [
        "P",
        "ub"
      ],
      [
        "S",
        "O"
      ],
      [
        "S",
        "ize"
      ],
      [
        "T",
        "y"
      ],
      [
        "T",
        "16"
      ],
      [
        "T",
        "he"
      ],
      [
        "U",
        "ser"
      ],
      [
        "V",
        "10"
      ],
      [
        "V",
        "20"
      ],
      [
        "V",
        "11"
      ],
      [
        "W",
        "e"
      ],
      [
        "_",
        "blank"
      ],
      [
        "a",
        "7"
      ],
      [
        "a",
        "f"
      ],
      [
        "a",
        "j"
      ],
      [
        "a",
        "w"
      ],
      [
        "a",
        "x"
      ],
      [
        "a",
        "12"
      ],
      [
        "a",
        "80"
      ],
      [
        "a",
        "tern"
      ],
      [
        "a",
        "0c"
      ],
      [
        "b",
        "u"
      ],
      [
        "b",
        "ot"
      ],
      [
        "b",
        "re"
      ],
      [
        "b",
        "et"
      ],
      [
        "b",
        "cf"
      ],
      [
        "b",
        "d5"
      ],
      [
        "b",
        "185"
      ],
      [
        "b",
        "cb"
      ],
      [
        "c",
        "a"
      ],
      [
        "c",
        "x"
      ],
      [
        "c",
        "y"
      ],
      [
        "c",
        "ing"
      ],
      [
        "c",
        "3839"
      ],
      [
        "d",
        "c"
      ],
      [
        "d",
        "l"
      ],
      [
        "d",
        "u"
      ],
      [
        "d",
        "y"
      ],
      [
        "d",
        "em"
      ],
      [
        "d",
        "ig"
      ],
      [
        "d",
        "ate"
      ],
      [
        "d",
        "0a"
      ],
      [
        "f",
        "t"
      ],
      [
        "f",
        "un"
      ],
      [
        "g",
        "r"
      ],
      [
        "g",
        "ht"
      ],
      [
        "g",
        "row"
      ],
      [
        "h",
        "2"
      ],
      [
        "h",
        "r"
      ],
      [
        "h",
        "as"
      ],
      [
        "h",
        "ub"
      ],
      [
        "i",
        "ll"
      ],
      [
        "i",
        "co"
      ],
      [
        "i",
        "ce"
      ],
      [
        "i",
        "ly"
      ],
      [
        "i",
        "ence"
      ],
      [
        "j",
        "o"
      ],
      [
        "j",
        "our"
      ],
      [
        "k",
        "_"
      ],
      [
        "k",
        "ate"
      ],
      [
        "k",
        "ed"
      ],
      [
        "l",
        "1"
      ],
      [
        "l",
        "f"
      ],
      [
        "m",
        "1"
      ],
      [
        "m",
        "ily"
      ],
      [
        "n",
        "ey"
      ],
      [
        "o",
        "f"
      ],
      [
        "o",
        "st"
      ],
      [
        "p",
        "ut"
      ],
      [
        "p",
        "ng"
      ],
      [
        "p",
        "ort"
      ],
      [
        "p",
        "k_"
      ],
      [
        "r",
        "x"
      ],
      [
        "r",
        "ies"
      ],
      [
        "r",
        "ight"
      ],
      [
        "r",
        "ing"
      ],
      [
        "r",
        "ati"
      ],
      [
        "s",
        "0"
      ],
      [
        "s",
        "2"
      ],
      [
        "s",
        "9"
      ],
      [
        "s",
        "y"
      ],
      [
        "s",
        "te"
      ],
      [
        "s",
        "oc"
      ],
      [
        "t",
        "re"
      ],
      [
        "t",
        "ing"
      ],
      [
        "t",
        "iny"
      ],
      [
        "u",
        "l"
      ],
      [
        "u",
        "re"
      ],
      [
        "u",
        "se"
      ],
      [
        "u",
        "df"
      ],
      [
        "v",
        "2"
      ],
      [
        "v",
        "8"
      ],
      [
        "v",
        "9"
      ],
      [
        "v",
        "an"
      ],
      [
        "v",
        "ia"
      ],
      [
        "v",
        "2h"
      ],
      [
        "w",
        "or"
      ],
      [
        "w",
        "ght"
      ],
      [
        "}",
        ","
      ],
      [
        "}",
        "}"
      ],
      [
        "·",
        "</"
      ],
      [
        "=\"",
        "\">"
      ],
      [
        "=\"",
        "{}"
      ],
      [
        "19",
        "4"
      ],
      [
        "19",
        "87"
      ],
      [
        "19",
        "53"
      ],
      [
        "19",
        "89"
      ],
      [
        "19",
        "C20"
      ],
      [
        "19",
        "8a"
      ],
      [
        "19",
        "C17"
      ],
      [
        "qu",
        "atern"
      ],
      [
        "197",
        "Zm0"
      ],
      [
        "197",
        "V6"
      ],
      [
        "197",
        "m1"
      ],
      [
        "00",
        "1"
      ],
      [
        "00",
        "7"
      ],
      [
        "00",
        "53"
      ],
      [
        "00",
        "002"
      ],
      [
        "00",
        "204"
      ],
      [
        "la",
        "re"
      ],
      [
        "in",
        "dig"
      ],
      [
        "in",
        "put"
      ],
      [
        "13",
        "3"
      ],
      [
        "13",
        "4"
      ],
      [
        "13",
        "19"
      ],
      [
        "13",
        "97"
      ],
      [
        "13",
        "192"
      ],
      [
        "13",
        "C5"
      ],
      [
        "13",
        "C20"
      ],
      [
        "13",
        "51"
      ],
      [
        "13",
        "012"
      ],
      [
        "13",
        "3C24"
      ],
      [
        "13",
        "V20"
      ],
      [
        "le",
        "ct"
      ],
      [
        "le",
        "ap"
      ],
      [
        "le",
        "ft"
      ],
      [
        "or",
        "e"
      ],
      [
        "or",
        "y"
      ],
      [
        "12",
        "T"
      ],
      [
        "12",
        "95"
      ],
      [
        "12",
        "C5"
      ],
      [
        "12",
        "C14"
      ],
      [
        "12",
        "C18"
      ],
      [
        "12",
        "96"
      ],
      [
        "12",
        "61"
      ],
      [
        "12",
        "L3"
      ],
      [
        "12",
        "v9"
      ],
      [
        "class",
        "Na"
      ],
      [
        "on",
        "load"
      ],
      [
        "14",
        "42"
      ],
      [
        "id",
        "e"
      ],
      [
        "10",
        "7"
      ],
      [
        "10",
        "76"
      ],
      [
        "10",
        "32"
      ],
      [
        "10",
        "36"
      ],
      [
        "10",
        "69"
      ],
      [
        "10",
        "85"
      ],
      [
        "10",
        "84"
      ],
      [
        "ar",
        "t"
      ],
      [
        "ar",
        "ch"
      ],
      [
        "ar",
        "ti"
      ],
      [
        "15",
        "1"
      ],
      [
        "15",
        "2"
      ],
      [
        "15",
        "6"
      ],
      [
        "15",
        "7"
      ],
      [
        "15",
        "8"
      ],
      [
        "15",
        "Z"
      ],
      [
        "43",
        "5"
      ],
      [
        "43",
        "6"
      ],
      [
        "43",
        "22"
      ],
      [
        "43",
        "31"
      ],
      [
        "43",
        "58"
      ],
      [
        "43",
        "53"
      ],
      [
        "43",
        "79"
      ],
      [
        "43",
        "9a"
      ],
      [
        "16",
        "4"
      ],
      [
        "16",
        "5"
      ],
      [
        "16",
        "25"
      ],
      [
        "16",
        "a2"
      ],
      [
        "16",
        "84"
      ],
      [
        "16",
        "799"
      ],
      [
        "16",
        "133C24"
      ],
      [
        "17",
        "1"
      ],
      [
        "17",
        "3"
      ],
      [
        "17",
        "5"
      ],
      [
        "17",
        "99"
      ],
      [
        "17",
        "75"
      ],
      [
        "17",
        "76"
      ],
      [
        "17",
        "27"
      ],
      [
        "17",
        "31"
      ],
      [
        "17",
        "09"
      ],
      [
        "17",
        "3a"
      ],
      [
        "17",
        "411"
      ],
      [
        "18",
        "39"
      ],
      [
        "18",
        "38"
      ],
      [
        "18",
        "79"
      ],
      [
        "18",
        "C16"
      ],
      [
        "18",
        "125"
      ],
      [
        "18",
        "C18"
      ],
      [
        "18",
        "C30"
      ],
      [
        "18",
        "101"
      ],
      [
        "18",
        "T16"
      ],
      [
        "99",
        "9"
      ],
      [
        "99",
        "f"
      ],
      [
        "99",
        "76"
      ],
      [
        "99",
        "98"
      ],
      [
        "99",
        "47"
      ],
      [
        "99",
        "79"
      ],
      [
        "28",
        "094"
      ],
      [
        "28",
        "928"
      ],
      [
        "25",
        "dd"
      ],
      [
        "25",
        "468"
      ],
      [
        "25",
        "3h"
      ],
      [
        "25",
        "v7"
      ],
      [
        "se",
        "t"
      ],
      [
        "se",
        "ction"
      ],
      [
        "se",
        "lf"
      ],
      [
        "se",
        "lect"
      ],
      [
        "75",
        "a"
      ],
      [
        "75",
        "23"
      ],
      [
        "75",
        "C16"
      ],
      [
        "75",
        "410"
      ],
      [
        "20",
        "3"
      ],
      [
        "20",
        "7"
      ],
      [
        "20",
        "8"
      ],
      [
        "20",
        "76"
      ],
      [
        "20",
        "86"
      ],
      [
        "20",
        "53"
      ],
      [
        "20",
        "a2"
      ],
      [
        "20",
        "54"
      ],
      [
        "20",
        "343"
      ],
      [
        "20",
        "V13"
      ],
      [
        "20",
        "997"
      ],
      [
        "20",
        "5C16"
      ],
      [
        "24",
        "8"
      ],
      [
        "24",
        "9"
      ],
      [
        "24",
        "h"
      ],
      [
        "24",
        "99"
      ],
      [
        "24",
        "08"
      ],
      [
        "24",
        "27"
      ],
      [
        "24",
        "a1"
      ],
      [
        "24",
        "723"
      ],
      [
        "24",
        "L12"
      ],
      [
        "23",
        "3"
      ],
      [
        "23",
        "16"
      ],
      [
        "23",
        "25"
      ],
      [
        "23",
        "24"
      ],
      [
        "23",
        "68"
      ],
      [
        "23",
        "87"
      ],
      [
        "23",
        "82"
      ],
      [
        "23",
        "88"
      ],
      [
        "23",
        "C18"
      ],
      [
        "23",
        "458"
      ],
      [
        "23",
        "916"
      ],
      [
        "23",
        "18C30"
      ],
      [
        "26",
        "8"
      ],
      [
        "26",
        "16"
      ],
      [
        "26",
        "17"
      ],
      [
        "26",
        "06"
      ],
      [
        "26",
        "77"
      ],
      [
        "26",
        "78"
      ],
      [
        "26",
        "2a"
      ],
      [
        "26",
        "7e"
      ],
      [
        "136",
        "Zm"
      ],
      [
        "136",
        "zm0"
      ],
      [
        "136",
        "V9"
      ],
      [
        "11",
        "a2"
      ],
      [
        "46",
        "7"
      ],
      [
        "46",
        "69"
      ],
      [
        "46",
        "8a"
      ],
      [
        "46",
        "623"
      ],
      [
        "08",
        "6"
      ],
      [
        "08",
        "8"
      ],
      [
        "08",
        "63"
      ],
      [
        "08",
        "658"
      ],
      [
        "08",
        "204"
      ],
      [
        "08",
        "641"
      ],
      [
        "39",
        "48"
      ],
      [
        "39",
        "79"
      ],
      [
        "39",
        "3a"
      ],
      [
        "39",
        "52"
      ],
      [
        "39",
        "343"
      ],
      [
        "39",
        "783"
      ],
      [
        "22",
        "14"
      ],
      [
        "22",
        "C8"
      ],
      [
        "22",
        "2C"
      ],
      [
        "22",
        "19C20"
      ],
      [
        "67",
        "8"
      ],
      [
        "67",
        "97"
      ],
      [
        "67",
        "44"
      ],
      [
        "67",
        "94"
      ],
      [
        "67",
        "023"
      ],
      [
        "193",
        "zm"
      ],
      [
        "193",
        "V7"
      ],
      [
        "06",
        "b"
      ],
      [
        "06",
        "h"
      ],
      [
        "06",
        "93"
      ],
      [
        "06",
        "535"
      ],
      [
        "06",
        "476"
      ],
      [
        "06",
        "886"
      ],
      [
        "45",
        "12"
      ],
      [
        "45",
        "11"
      ],
      [
        "45",
        "79"
      ],
      [
        "196",
        "V6"
      ],
      [
        "33",
        "2"
      ],
      [
        "33",
        "06"
      ],
      [
        "al",
        "og"
      ],
      [
        "95",
        "2"
      ],
      [
        "95",
        "4"
      ],
      [
        "95",
        "933"
      ],
      [
        "ter",
        "pri"
      ],
      [
        "21",
        "C0"
      ],
      [
        "21",
        "L4"
      ],
      [
        "21",
        "12C14"
      ],
      [
        "21",
        "18C16"
      ],
      [
        "29",
        "c"
      ],
      [
        "29",
        "34"
      ],
      [
        "29",
        "49"
      ],
      [
        "29",
        "C16"
      ],
      [
        "35",
        "34"
      ],
      [
        "35",
        "36"
      ],
      [
        "35",
        "262"
      ],
      [
        "35",
        "6375"
      ],
      [
        "\">",
        "/</"
      ],
      [
        "\">",
        "·</"
      ],
      [
        "76",
        "37"
      ],
      [
        "76",
        "55"
      ],
      [
        "76",
        "82"
      ],
      [
        "76",
        "84"
      ],
      [
        "04",
        "7"
      ],
      [
        "04",
        "l"
      ],
      [
        "04",
        "28"
      ],
      [
        "04",
        "476"
      ],
      [
        "li",
        "c"
      ],
      [
        "li",
        "bs"
      ],
      [
        "li",
        "ke"
      ],
      [
        "65",
        "4"
      ],
      [
        "65",
        "6"
      ],
      [
        "65",
        "23"
      ],
      [
        "65",
        "48"
      ],
      [
        "65",
        "8a"
      ],
      [
        "65",
        "75C16"
      ],
      [
        "07",
        "L"
      ],
      [
        "07",
        "83"
      ],
      [
        "rou",
        "gh"
      ],
      [
        "05",
        "8"
      ],
      [
        "05",
        "l"
      ],
      [
        "05",
        "39"
      ],
      [
        "05",
        "2c0"
      ],
      [
        "34",
        "77"
      ],
      [
        "34",
        "99H2"
      ],
      [
        "38",
        "37"
      ],
      [
        "38",
        "a5"
      ],
      [
        "38",
        "043"
      ],
      [
        "38",
        "031"
      ],
      [
        "38",
        "415"
      ],
      [
        "37",
        "26"
      ],
      [
        "37",
        "04"
      ],
      [
        "37",
        "71"
      ],
      [
        "37",
        "a3"
      ],
      [
        "48",
        "a"
      ],
      [
        "48",
        "08"
      ],
      [
        "48",
        "a2"
      ],
      [
        "48",
        "Zm0"
      ],
      [
        "48",
        "658"
      ],
      [
        "48",
        "545"
      ],
      [
        "48",
        "4669"
      ],
      [
        "98",
        "39"
      ],
      [
        "98",
        "33"
      ],
      [
        "98",
        "65"
      ],
      [
        "98",
        "42"
      ],
      [
        "98",
        "70"
      ],
      [
        "98",
        "141"
      ],
      [
        "55",
        "2"
      ],
      [
        "55",
        "c"
      ],
      [
        "55",
        "13"
      ],
      [
        "55",
        "81"
      ],
      [
        "32",
        "C21"
      ],
      [
        "de",
        "v"
      ],
      [
        "de",
        "528"
      ],
      [
        "de",
        "lete"
      ],
      [
        "ac",
        "tive"
      ],
      [
        "ac",
        "25dd"
      ],
      [
        "49",
        "23"
      ],
      [
        "49",
        "196"
      ],
      [
        "49",
        "37"
      ],
      [
        "49",
        "039"
      ],
      [
        "49",
        "6C"
      ],
      [
        "86",
        "46"
      ],
      [
        "86",
        "68"
      ],
      [
        "86",
        "114"
      ],
      [
        "86",
        "808"
      ],
      [
        "31",
        "Z"
      ],
      [
        "31",
        "c"
      ],
      [
        "31",
        "Zm0"
      ],
      [
        "31",
        "v4"
      ],
      [
        "th",
        "rough"
      ],
      [
        "09",
        "14"
      ],
      [
        "09",
        "07"
      ],
      [
        "09",
        "34"
      ],
      [
        "64",
        "Z"
      ],
      [
        "64",
        "45"
      ],
      [
        "64",
        "71"
      ],
      [
        "64",
        "99H8"
      ],
      [
        "97",
        "Z"
      ],
      [
        "97",
        "a"
      ],
      [
        "97",
        "101"
      ],
      [
        "me",
        "s"
      ],
      [
        "ref",
        "er"
      ],
      [
        "44",
        "28"
      ],
      [
        "44",
        "225"
      ],
      [
        "44",
        "221"
      ],
      [
        "44",
        "128"
      ],
      [
        "44",
        "19C17"
      ],
      [
        "44",
        "18C18"
      ],
      [
        "68",
        "41"
      ],
      [
        "02",
        "c"
      ],
      [
        "02",
        "h"
      ],
      [
        "02",
        "205C16"
      ],
      [
        "36",
        "a"
      ],
      [
        "36",
        "275"
      ],
      [
        "fo",
        "llow"
      ],
      [
        "47",
        "31"
      ],
      [
        "77",
        "c"
      ],
      [
        "77",
        "23"
      ],
      [
        "77",
        "22"
      ],
      [
        "77",
        "47"
      ],
      [
        "94",
        "16"
      ],
      [
        "94",
        "01"
      ],
      [
        "ad",
        "van"
      ],
      [
        "66",
        "6"
      ],
      [
        "66",
        "a5"
      ],
      [
        "58",
        "98"
      ],
      [
        "58",
        "42"
      ],
      [
        "58",
        "41"
      ],
      [
        "78",
        "21"
      ],
      [
        "78",
        "Zm"
      ],
      [
        "78",
        "083"
      ],
      [
        "87",
        "98"
      ],
      [
        "87",
        "a5"
      ],
      [
        "87",
        "017"
      ],
      [
        "192",
        "m0"
      ],
      [
        "192",
        "V6"
      ],
      [
        "192",
        "H17"
      ],
      [
        "53",
        "11"
      ],
      [
        "53",
        "46"
      ],
      [
        "53",
        "158"
      ],
      [
        "it",
        "ies"
      ],
      [
        "30",
        "39"
      ],
      [
        "30",
        "1h"
      ],
      [
        "4a",
        "4"
      ],
      [
        "con",
        "ver"
      ],
      [
        "con",
        "st"
      ],
      [
        "is",
        "t"
      ],
      [
        "is",
        "Pro"
      ],
      [
        "83",
        "14"
      ],
      [
        "83",
        "26"
      ],
      [
        "sc",
        "a"
      ],
      [
        "sc",
        "ience"
      ],
      [
        "able",
        "d"
      ],
      [
        "56",
        "25"
      ],
      [
        "56",
        "3a"
      ],
      [
        "69",
        "6"
      ],
      [
        "69",
        "32"
      ],
      [
        "79",
        "28"
      ],
      [
        "79",
        "63"
      ],
      [
        "79",
        "3C"
      ],
      [
        "79",
        "29C16"
      ],
      [
        "st",
        "ripe"
      ],
      [
        "st",
        "art"
      ],
      [
        "ZM",
        "2"
      ],
      [
        "ZM",
        "5"
      ],
      [
        "ZM",
        "8"
      ],
      [
        "ZM",
        "14"
      ],
      [
        "03",
        "64"
      ],
      [
        "57",
        "4"
      ],
      [
        "93",
        "11"
      ],
      [
        "93",
        "678"
      ],
      [
        "01",
        "z"
      ],
      [
        "01",
        "L12"
      ],
      [
        "2h",
        "16a2"
      ],
      [
        "tag",
        "s"
      ],
      [
        "039",
        "1"
      ],
      [
        "85",
        "Z"
      ],
      [
        "85",
        "33"
      ],
      [
        "85",
        "185"
      ],
      [
        "un",
        "ity"
      ],
      [
        "500",
        "6"
      ],
      [
        "500",
        "87"
      ],
      [
        "71",
        "z"
      ],
      [
        "71",
        "15"
      ],
      [
        "71",
        "L11"
      ],
      [
        "89",
        "28"
      ],
      [
        "89",
        "39"
      ],
      [
        "89",
        "634"
      ],
      [
        "89",
        "21C0"
      ],
      [
        "92",
        "a"
      ],
      [
        "92",
        "99"
      ],
      [
        "54",
        "c"
      ],
      [
        "54",
        "16"
      ],
      [
        "100",
        "76"
      ],
      [
        "62",
        "a5"
      ],
      [
        "ap",
        "p"
      ],
      [
        "na",
        "v"
      ],
      [
        "2V",
        "12l"
      ],
      [
        ";}",
        ",&"
      ],
      [
        ";}",
        "]},&"
      ],
      [
        "pro",
        "du"
      ],
      [
        "600",
        "1"
      ],
      [
        "600",
        "8C17"
      ],
      [
        "600",
        "9C"
      ],
      [
        "72",
        "19"
      ],
      [
        "gg",
        "ed"
      ],
      [
        "3C",
        "14"
      ],
      [
        "3C",
        "21"
      ],
      [
        "7C",
        "0"
      ],
      [
        "7C",
        "13"
      ],
      [
        "7C",
        "16"
      ],
      [
        "7C",
        "29"
      ],
      [
        "375",
        "9"
      ],
      [
        "375",
        "87"
      ],
      [
        "73",
        "v"
      ],
      [
        "91",
        "16"
      ],
      [
        "91",
        "17"
      ],
      [
        "59",
        "V3"
      ],
      [
        "\":",
        "{\""
      ],
      [
        "40",
        "46"
      ],
      [
        "40",
        "207"
      ],
      [
        "6C",
        "23"
      ],
      [
        "914",
        "6"
      ],
      [
        "bla",
        "me"
      ],
      [
        "mo",
        "on"
      ],
      [
        "00039",
        "C1"
      ],
      [
        "2a",
        "14"
      ],
      [
        "343",
        "3"
      ],
      [
        "343",
        "4"
      ],
      [
        "608",
        "2"
      ],
      [
        "006",
        "02"
      ],
      [
        "target",
        "Commit"
      ],
      [
        "667",
        "15"
      ],
      [
        "96",
        "46"
      ],
      [
        "136v",
        "1"
      ],
      [
        "674",
        "46"
      ],
      [
        "674",
        "v4"
      ],
      [
        "224",
        "6Z"
      ],
      [
        "3A",
        "text"
      ],
      [
        "3A",
        "3B"
      ],
      [
        "3c",
        "a0c"
      ],
      [
        "414",
        "7"
      ],
      [
        "414",
        "8"
      ],
      [
        "723",
        "a80"
      ],
      [
        "80",
        "21"
      ],
      [
        "80",
        "997"
      ],
      [
        "80",
        "208"
      ],
      [
        "875",
        "3C14"
      ],
      [
        "917",
        "4"
      ],
      [
        "oc",
        "rati"
      ],
      [
        "og",
        "leap"
      ],
      [
        "pla",
        "ce"
      ],
      [
        "075",
        "3"
      ],
      [
        "095",
        "83"
      ],
      [
        "2v",
        "12h"
      ],
      [
        "506",
        "a"
      ],
      [
        "506",
        "75"
      ],
      [
        "548",
        "5"
      ],
      [
        "775",
        "4"
      ],
      [
        "775",
        "8"
      ],
      [
        "775",
        "9"
      ],
      [
        "908",
        "9"
      ],
      [
        "908",
        "a"
      ],
      [
        "di",
        "alog"
      ],
      [
        "468",
        "42"
      ],
      [
        "0945",
        "ZM4"
      ],
      [
        "0v",
        "5"
      ],
      [
        "0v",
        "2h3"
      ],
      [
        "225",
        "36"
      ],
      [
        "302",
        "h"
      ],
      [
        "302",
        "V2"
      ],
      [
        "417",
        "1"
      ],
      [
        "417",
        "9C12"
      ],
      [
        "827",
        "49"
      ],
      [
        "95917",
        "Z"
      ],
      [
        "95917",
        "C20"
      ],
      [
        "9402",
        "C18"
      ],
      [
        "9403",
        "C18"
      ],
      [
        "9403",
        "C30"
      ],
      [
        "037",
        "95"
      ],
      [
        "037",
        "48"
      ],
      [
        "117",
        "05"
      ],
      [
        "428",
        "54"
      ],
      [
        "839",
        "3"
      ],
      [
        "855",
        "5"
      ],
      [
        "V7",
        "h"
      ],
      [
        "fa",
        "mily"
      ],
      [
        "759",
        "37"
      ],
      [
        "956",
        "a"
      ],
      [
        "--",
        ">"
      ],
      [
        "2c",
        "3ca0c"
      ],
      [
        "426",
        "3"
      ],
      [
        "426",
        "66"
      ],
      [
        "426",
        "3C24"
      ],
      [
        "737",
        "2"
      ],
      [
        "737",
        "91"
      ],
      [
        "bb",
        "c3839"
      ],
      [
        "go",
        "ogleap"
      ],
      [
        "no",
        "script"
      ],
      [
        "user",
        "s"
      ],
      [
        "16355",
        "C11"
      ],
      [
        "20438",
        "H12"
      ],
      [
        "file",
        "s"
      ],
      [
        "6726",
        "C20"
      ],
      [
        "33114",
        "C10"
      ],
      [
        "33111",
        "C10"
      ],
      [
        "0522",
        "C24"
      ],
      [
        "480",
        "27"
      ],
      [
        "6837",
        "C11"
      ],
      [
        "8345",
        "C7"
      ],
      [
        "93643",
        "C26"
      ],
      [
        "5181",
        "C18"
      ],
      [
        "026",
        "4c"
      ],
      [
        "326",
        "6"
      ],
      [
        "495",
        "88"
      ],
      [
        "5V",
        "11"
      ],
      [
        "5V",
        "5C5"
      ],
      [
        "533",
        "82"
      ],
      [
        "576",
        "3"
      ],
      [
        "534",
        "72"
      ],
      [
        "6l",
        "3"
      ],
      [
        "624",
        "99H"
      ],
      [
        "713",
        "C14"
      ],
      [
        "713",
        "1C"
      ],
      [
        "836",
        "1"
      ],
      [
        "Mo",
        "dels"
      ],
      [
        "Te",
        "X"
      ],
      [
        "css",
        "2"
      ],
      [
        "3958",
        "1"
      ],
      [
        "333",
        "a1"
      ],
      [
        "041",
        "c0"
      ],
      [
        "192v",
        "2"
      ],
      [
        "192v",
        "5"
      ],
      [
        "FF9D",
        "00"
      ],
      [
        "Comm",
        "unity"
      ],
      [
        "0l",
        "6"
      ],
      [
        "012",
        "4"
      ],
      [
        "017",
        "07"
      ],
      [
        "443",
        "19"
      ],
      [
        "443",
        "16"
      ],
      [
        "425",
        "6"
      ],
      [
        "5e",
        "bbc3839"
      ],
      [
        "524",
        "99"
      ],
      [
        "648",
        "58"
      ],
      [
        "714",
        "89"
      ],
      [
        "946",
        "1"
      ],
      [
        "946",
        "13"
      ],
      [
        "==",
        "="
      ],
      [
        "Po",
        "inter"
      ],
      [
        "Po",
        "lars"
      ],
      [
        "Se",
        "e"
      ],
      [
        "Se",
        "arch"
      ],
      [
        "V13",
        "a1"
      ],
      [
        "base",
        "line"
      ],
      [
        "doc",
        "s"
      ],
      [
        "mat",
        "ch"
      ],
      [
        "val",
        "id"
      ],
      [
        "val",
        "ue"
      ],
      [
        "{}",
        ";"
      ],
      [
        "138",
        "28"
      ],
      [
        "138",
        "31"
      ],
      [
        "128",
        "04"
      ],
      [
        "12h",
        "2v12h"
      ],
      [
        "1752",
        "C28"
      ],
      [
        "1752",
        "C26"
      ],
      [
        "206C",
        "3"
      ],
      [
        "206C",
        "9"
      ],
      [
        "6743",
        "4"
      ],
      [
        "9727",
        "1"
      ],
      [
        "9727",
        "3C"
      ],
      [
        "01a",
        "44"
      ],
      [
        "2246C",
        "3"
      ],
      [
        "2246C",
        "6"
      ],
      [
        "cdn",
        "js"
      ],
      [
        "6107C",
        "28"
      ],
      [
        "6107C",
        "27"
      ],
      [
        "034",
        "2"
      ],
      [
        "038",
        "9"
      ],
      [
        "113",
        "1C6"
      ],
      [
        "243",
        "9"
      ],
      [
        "299",
        "97"
      ],
      [
        "3ZM",
        "20"
      ],
      [
        "3Zm",
        "4"
      ],
      [
        "412",
        "1"
      ],
      [
        "522",
        "9"
      ],
      [
        "606",
        "02"
      ],
      [
        "605",
        "56"
      ],
      [
        "61a",
        "8"
      ],
      [
        "717",
        "7C29"
      ],
      [
        "724",
        "2"
      ],
      [
        "843",
        "73"
      ],
      [
        "826",
        "9"
      ],
      [
        "835",
        "a"
      ],
      [
        "939",
        "3"
      ],
      [
        "965",
        "3"
      ],
      [
        "La",
        "st"
      ],
      [
        "TA",
        "G_"
      ],
      [
        "bo",
        "dy"
      ],
      [
        "cre",
        "ated"
      ],
      [
        "cal",
        "c"
      ],
      [
        "che",
        "s"
      ],
      [
        "clo",
        "udf"
      ],
      [
        "dv",
        "h"
      ],
      [
        "ea",
        "ac25dd"
      ],
      [
        "sw",
        "ap"
      ],
      [
        "we",
        "en"
      ],
      [
        "fic",
        "ial"
      ],
      [
        "065",
        "32C21"
      ],
      [
        "768",
        "42"
      ],
      [
        "585",
        "v4"
      ],
      [
        "548526",
        "1731"
      ],
      [
        "intellig",
        "ence"
      ],
      [
        "027",
        "82"
      ],
      [
        "098",
        "2"
      ],
      [
        "218",
        "53"
      ],
      [
        "317",
        "37"
      ],
      [
        "345",
        "91"
      ],
      [
        "327",
        "4"
      ],
      [
        "575",
        "17"
      ],
      [
        "509",
        "3"
      ],
      [
        "502",
        "24"
      ],
      [
        "615",
        "83"
      ],
      [
        "643",
        "65"
      ],
      [
        "618",
        "64"
      ],
      [
        "633",
        "723a80"
      ],
      [
        "665",
        "9"
      ],
      [
        "722",
        "h"
      ],
      [
        "767",
        "25"
      ],
      [
        "745",
        "9"
      ],
      [
        "738",
        "a"
      ],
      [
        "748",
        "9"
      ],
      [
        "74a",
        "5"
      ],
      [
        "8e",
        "5ebbc3839"
      ],
      [
        "810",
        "26"
      ],
      [
        "895",
        "6C23"
      ],
      [
        "805",
        "3"
      ],
      [
        "877",
        "76"
      ],
      [
        "882",
        "95"
      ],
      [
        "943",
        "23C18"
      ],
      [
        "934",
        "7"
      ],
      [
        "Dis",
        "abled"
      ],
      [
        "Ele",
        "ment"
      ],
      [
        "GP",
        "T"
      ],
      [
        "HT",
        "ML_"
      ],
      [
        "Ka",
        "TeX"
      ],
      [
        "Lan",
        "guage"
      ],
      [
        "Larg",
        "e"
      ],
      [
        "Pub",
        "lic"
      ],
      [
        "Ty",
        "pe"
      ],
      [
        "aj",
        "ax"
      ],
      [
        "bu",
        "ild"
      ],
      [
        "bot",
        "tom"
      ],
      [
        "bre",
        "ak"
      ],
      [
        "bet",
        "ween"
      ],
      [
        "bcf",
        "0264c"
      ],
      [
        "dem",
        "ocrati"
      ],
      [
        "d0a",
        "9870"
      ],
      [
        "fun",
        "ction"
      ],
      [
        "gr",
        "id"
      ],
      [
        "jo",
        "in"
      ],
      [
        "jour",
        "ney"
      ],
      [
        "kate",
        "x"
      ],
      [
        "ste",
        "m"
      ],
      [
        "soc",
        "ial"
      ],
      [
        "tre",
        "e"
      ],
      [
        "tiny",
        "stories"
      ],
      [
        "wor",
        "ds"
      ],
      [
        "=\"{}",
        "\"></"
[...]
